{
  "!": 5,
  "!!": 3265,
  "!!!": 8484,
  "!!!!": 25316,
  "!!âĢĿ": 42876,
  "!\"": 12430,
  "!)": 25554,
  "!).": 32990,
  "!,": 31390,
  "!.": 17287,
  "!?": 44333,
  "!âĢĻ": 49719,
  "!âĢĿ": 7348,
  "!âĢĿ,": 49969,
  "!âĢĿ.": 35752,
  "\"": 6,
  "\")": 28120,
  "\").": 36061,
  "\",": 4584,
  "\",\"": 22383,
  "\".": 3896,
  "\"...": 46946,
  "\":": 13169,
  "\":\"": 27105,
  "\"?": 47810,
  "#": 7,
  "$": 8,
  "%": 9,
  "%)": 15680,
  "%),": 24269,
  "%).": 24136,
  "%,": 8693,
  "%-": 31295,
  "%.": 5268,
  "&": 10,
  "'": 11,
  "''": 13305,
  "')": 34935,
  "').": 49629,
  "',": 12309,
  "'.": 9211,
  "'d": 50151,
  "'m": 31528,
  "'s": 8437,
  "'t": 27681,
  "(": 12,
  "(\"": 36819,
  "('": 45314,
  "()": 34978,
  ")": 13,
  ")\"": 46213,
  ")\",": 40106,
  "))": 23243,
  "),": 1070,
  "),\"": 27130,
  "),âĢĿ": 20276,
  ")-": 20261,
  ").": 765,
  ").\"": 47303,
  ")..": 36526,
  ")...": 42266,
  ").[": 40587,
  ").âĢĿ": 26831,
  ")/": 39945,
  "):": 12269,
  ");": 9564,
  ")?": 22350,
  "){": 29398,
  ")âĢĿ": 29675,
  ")âĢĿ.": 36932,
  "*": 14,
  "*)": 10223,
  "**": 8075,
  "***": 20316,
  "*,": 45197,
  "*.": 25970,
  "+": 15,
  "++": 23141,
  "+,": 36720,
  "+.": 35667,
  "+]": 42948,
  ",": 16,
  ",\"": 1451,
  ",'": 39859,
  ",''": 24774,
  ",(": 45003,
  ",,": 4612,
  ",,,": 15623,
  ",,,,": 20764,
  ",,,,,,,,": 43617,
  ",-": 5027,
  ",-.": 18490,
  ",-/": 38115,
  ",.": 12815,
  ",..": 27090,
  ",...": 14784,
  ",[": 37261,
  ",âĢ¦": 20846,
  ",âĢĻ": 31682,
  ",âĢĻâĢĻ": 18595,
  ",âĢľ": 35000,
  ",âĢĿ": 990,
  ",ï¿½": 35577,
  "-": 17,
  "-,": 34466,
  "--": 5393,
  "---": 40291,
  "----": 12489,
  "--------": 22315,
  "----------------": 41905,
  "-.": 34833,
  "-]": 41463,
  "-âĢĺ": 33085,
  ".": 18,
  ".\"": 3152,
  ".'": 28501,
  ".(": 6169,
  ".(*)": 23163,
  ".)": 11965,
  ".),": 46796,
  ".).": 36515,
  ".*": 32573,
  ".***": 30935,
  ".,": 5805,
  ".-": 21292,
  "..": 531,
  "..!": 30548,
  "..!!": 35955,
  "..\"": 30955,
  "..)": 43823,
  "..,": 21098,
  "...": 931,
  "...!": 46867,
  "...\"": 25341,
  "...(": 45476,
  "...,": 34703,
  "....": 3061,
  ".....": 13704,
  "......": 24568,
  ".......": 37662,
  "........": 15393,
  "................": 31942,
  "...?": 44233,
  "...]": 17227,
  "...âĢĿ": 32089,
  "..?": 22549,
  "..??": 38601,
  "..âĢĿ": 17365,
  "./": 33113,
  ".:": 43941,
  ".<": 49034,
  ".?": 27665,
  ".[": 5958,
  ".[]": 42371,
  ".âĢ¦": 24762,
  ".âĢĻ": 17988,
  ".âĢľ": 23889,
  ".âĢĿ": 1734,
  ".âĢĿ[": 41957,
  "/": 19,
  "/-": 43508,
  "/.": 29163,
  "//": 4932,
  "0": 20,
  "00": 536,
  "000": 1164,
  "0000": 30206,
  "001": 22460,
  "002": 46965,
  "003": 38083,
  "01": 600,
  "010": 39430,
  "02": 12552,
  "021": 50054,
  "03": 12917,
  "04": 12111,
  "05": 10151,
  "06": 12938,
  "07": 12359,
  "08": 10158,
  "09": 12007,
  "1": 21,
  "10": 2296,
  "100": 7354,
  "1000": 20596,
  "101": 27272,
  "102": 42040,
  "103": 38875,
  "104": 47892,
  "105": 38916,
  "108": 41457,
  "109": 43482,
  "11": 3262,
  "110": 27879,
  "111": 36759,
  "112": 42512,
  "113": 49519,
  "114": 47293,
  "115": 39616,
  "116": 48836,
  "117": 49965,
  "118": 46218,
  "119": 48829,
  "12": 2606,
  "120": 23684,
  "1229": 47761,
  "123": 12052,
  "125": 27186,
  "128": 16109,
  "13": 4396,
  "130": 33970,
  "135": 40318,
  "14": 4898,
  "140": 38369,
  "145": 48705,
  "15": 3929,
  "150": 11463,
  "16": 4250,
  "160": 35093,
  "1601": 46111,
  "1669": 28108,
  "166937": 28294,
  "1669379": 41338,
  "168": 26839,
  "17": 4841,
  "170": 43060,
  "175": 43340,
  "18": 4627,
  "180": 35100,
  "188": 23456,
  "19": 3144,
  "190": 43665,
  "199": 11278,
  "1990": 42749,
  "1991": 49614,
  "1992": 44673,
  "1993": 43783,
  "1994": 41508,
  "1995": 39669,
  "1996": 39474,
  "1997": 37443,
  "1998": 33189,
  "1999": 30629,
  "2": 22,
  "20": 2955,
  "200": 4419,
  "2000": 17521,
  "2001": 28900,
  "2002": 27906,
  "2003": 25308,
  "2004": 23350,
  "2005": 23911,
  "2006": 24929,
  "2007": 22440,
  "2008": 19305,
  "2009": 18377,
  "201": 1945,
  "2010": 17033,
  "2011": 17504,
  "2012": 15388,
  "2013": 14159,
  "2014": 11980,
  "2015": 10657,
  "2016": 9154,
  "2017": 6920,
  "2018": 4068,
  "2019": 14915,
  "2020": 41331,
  "2023": 45123,
  "21": 5394,
  "210": 40472,
  "212": 49499,
  "213": 50033,
  "22": 5705,
  "220": 38423,
  "225": 46283,
  "23": 5474,
  "230": 47424,
  "24": 5356,
  "240": 42924,
  "25": 4552,
  "250": 13797,
  "26": 6962,
  "27": 6649,
  "28": 6534,
  "280": 48402,
  "288": 39896,
  "29": 6836,
  "291": 40018,
  "299": 44844,
  "3": 23,
  "30": 2874,
  "300": 11333,
  "3000": 46671,
  "303": 19489,
  "31": 9025,
  "310": 47660,
  "32": 9310,
  "320": 38006,
  "321601": 48417,
  "321601291": 48441,
  "33": 6890,
  "330": 41118,
  "338": 31727,
  "34": 10290,
  "35": 7130,
  "350": 29558,
  "36": 8296,
  "360": 34431,
  "365": 22562,
  "37": 8066,
  "370": 45532,
  "38": 9477,
  "388": 31191,
  "39": 9415,
  "4": 24,
  "40": 5835,
  "400": 13190,
  "41": 13422,
  "410": 49617,
  "4100": 49377,
  "42": 11907,
  "43": 13160,
  "44": 9138,
  "444": 43707,
  "45": 4786,
  "450": 30766,
  "456": 49870,
  "46": 9627,
  "47": 10735,
  "471": 46012,
  "48": 7901,
  "49": 9711,
  "499": 46475,
  "5": 25,
  "50": 2466,
  "500": 5856,
  "5000": 38895,
  "51": 17050,
  "510": 49135,
  "52": 15753,
  "520": 46496,
  "53": 15006,
  "54": 17261,
  "55": 7486,
  "550": 33337,
  "555": 45948,
  "56": 13814,
  "57": 12919,
  "58": 15672,
  "59": 12435,
  "6": 26,
  "60": 4927,
  "600": 14270,
  "6000": 38488,
  "61": 19073,
  "610": 43662,
  "62": 18672,
  "63": 18801,
  "64": 15855,
  "65": 6817,
  "650": 34231,
  "66": 9876,
  "67": 12067,
  "68": 11863,
  "69": 11206,
  "7": 27,
  "70": 7554,
  "700": 16963,
  "7000": 42670,
  "71": 16095,
  "72": 14793,
  "720": 35462,
  "73": 13889,
  "74": 18489,
  "75": 9000,
  "750": 26932,
  "76": 16251,
  "77": 7329,
  "777": 27991,
  "78": 10224,
  "79": 15118,
  "8": 28,
  "80": 4989,
  "800": 13890,
  "81": 20853,
  "82": 16601,
  "83": 18899,
  "84": 20240,
  "85": 13401,
  "850": 39713,
  "855": 45138,
  "86": 15296,
  "87": 19630,
  "88": 3998,
  "888": 27071,
  "89": 13923,
  "9": 29,
  "90": 8163,
  "900": 15936,
  "91": 21579,
  "92": 21424,
  "93": 22196,
  "94": 22510,
  "95": 14701,
  "950": 43560,
  "96": 18164,
  "97": 21432,
  "98": 17613,
  "99": 4960,
  "999": 26974,
  ":": 30,
  ":\"": 42426,
  ":)": 30452,
  ":-": 49572,
  ":.": 43542,
  "://": 5183,
  ":\\": 47777,
  ":âĢĿ": 39469,
  ";": 31,
  "<": 32,
  "</": 38248,
  "</s>": 2,
  "<mask>": 4,
  "<pad>": 1,
  "<s>": 0,
  "<unk>": 3,
  "=": 33,
  "=\"": 28504,
  "==": 17670,
  "====": 33993,
  "=âĢĿ": 49686,
  ">": 34,
  ">.": 46422,
  ">>": 23603,
  "?": 35,
  "?!": 18553,
  "?\"": 7480,
  "?\",": 44862,
  "?\".": 35193,
  "?'": 42016,
  "?)": 20583,
  "?).": 33416,
  "?,": 14721,
  "?.": 9708,
  "??": 3895,
  "???": 12190,
  "????": 20903,
  "?âĢĻ": 27986,
  "?âĢĿ": 4427,
  "?âĢĿ,": 28588,
  "?âĢĿ.": 21058,
  "@": 36,
  "A": 37,
  "AA": 12787,
  "AAAA": 32299,
  "AB": 3490,
  "ABA": 44219,
  "ABAYA": 24416,
  "ABS": 45566,
  "AC": 7115,
  "ACK": 31285,
  "ACP": 40574,
  "AD": 4935,
  "ADA": 27657,
  "ADAR": 38958,
  "ADE": 41897,
  "ADO": 35077,
  "AF": 30445,
  "AG": 10621,
  "AGEN": 43708,
  "AGI": 36619,
  "AH": 2906,
  "AHA": 18925,
  "AHAH": 30675,
  "AHAN": 25020,
  "AHASAN": 38173,
  "AHM": 47955,
  "AI": 6698,
  "AIDS": 19245,
  "AIL": 43780,
  "AIN": 15925,
  "AIR": 27377,
  "AJ": 33154,
  "AJAR": 46114,
  "AK": 2743,
  "AKA": 22092,
  "AKAN": 21994,
  "AKARTA": 7537,
  "AKAT": 40110,
  "AKL": 50082,
  "AKU": 34218,
  "AL": 2655,
  "ALA": 20831,
  "ALAH": 36095,
  "ALAM": 20589,
  "ALAN": 31857,
  "ALANG": 19927,
  "ALI": 15998,
  "ALIS": 43971,
  "ALITAS": 45014,
  "ALL": 29342,
  "ALOG": 45335,
  "ALON": 45345,
  "ALU": 36135,
  "AM": 2127,
  "AMA": 13876,
  "AMAN": 29429,
  "AMAT": 43390,
  "AMB": 25153,
  "AMI": 19412,
  "AMIN": 44565,
  "AMP": 41083,
  "AMPU": 34937,
  "AN": 1096,
  "ANA": 17126,
  "ANAN": 34475,
  "ANBARU": 37598,
  "ANC": 41477,
  "AND": 10186,
  "ANG": 3620,
  "ANGAN": 18433,
  "ANGAT": 34751,
  "ANGERANG": 42989,
  "ANGG": 33879,
  "ANGI": 40584,
  "ANGK": 21231,
  "ANGKA": 33719,
  "ANI": 34558,
  "ANS": 33973,
  "ANT": 14204,
  "ANTARA": 30546,
  "AP": 5492,
  "APAN": 29156,
  "APOS": 41032,
  "AR": 1814,
  "ARA": 8244,
  "ARAN": 15989,
  "ARANG": 17683,
  "ARAT": 35270,
  "ARD": 39315,
  "ARE": 29399,
  "ARI": 12068,
  "ARIS": 43059,
  "ART": 16017,
  "ARTA": 7226,
  "ARU": 18451,
  "AS": 2544,
  "ASA": 11114,
  "ASAN": 19944,
  "ASH": 28191,
  "ASI": 7520,
  "ASIH": 41276,
  "ASIL": 29994,
  "ASIONAL": 46704,
  "ASN": 30645,
  "ASS": 23956,
  "ASSAR": 41173,
  "AST": 35287,
  "ASUS": 47770,
  "AT": 2311,
  "ATA": 14933,
  "ATAN": 16593,
  "ATE": 24942,
  "ATEN": 38063,
  "ATI": 14231,
  "ATION": 44731,
  "ATIS": 16926,
  "ATOR": 49666,
  "ATU": 23378,
  "AU": 33319,
  "AV": 35922,
  "AW": 5516,
  "AWA": 34258,
  "AWAN": 42094,
  "AX": 45474,
  "AY": 13023,
  "AYA": 16667,
  "AYAR": 43287,
  "Ab": 12417,
  "Abdul": 27885,
  "Abdullah": 45351,
  "Abu": 24731,
  "Ac": 17485,
  "Acara": 9029,
  "Ace": 47865,
  "Aceh": 37000,
  "Ad": 3945,
  "Ada": 2622,
  "Adakah": 34497,
  "Adalah": 16038,
  "Adam": 47074,
  "Adanya": 17279,
  "Adapun": 7455,
  "Adi": 45591,
  "Adik": 44213,
  "Admin": 31250,
  "Advisor": 27850,
  "Af": 33721,
  "Ag": 13845,
  "Agak": 46443,
  "Agama": 38857,
  "Agar": 9675,
  "Agen": 8529,
  "Agenda": 44598,
  "Agus": 23051,
  "Agustus": 44273,
  "Ah": 7134,
  "Ahli": 40543,
  "Ahmad": 34527,
  "Ahok": 29946,
  "Air": 13072,
  "Aisyah": 39860,
  "Ajang": 46133,
  "Ak": 4256,
  "Akan": 8676,
  "Akhir": 17947,
  "Akhirnya": 8958,
  "Akibat": 16056,
  "Akibatnya": 28893,
  "Akses": 29968,
  "Aksi": 19844,
  "Aktivitas": 30744,
  "Aku": 2809,
  "Akun": 31851,
  "Al": 2882,
  "Alaihi": 46733,
  "Alam": 41666,
  "Alamat": 34011,
  "Alangkah": 39882,
  "Alasan": 14869,
  "Alasannya": 35835,
  "Alat": 16727,
  "Album": 47639,
  "Alex": 39268,
  "Alhamdulillah": 11792,
  "Alhasil": 38710,
  "Ali": 25025,
  "Alih": 44342,
  "All": 24938,
  "Allah": 8799,
  "Alternatif": 47817,
  "Alum": 49154,
  "Alun": 48014,
  "Am": 15398,
  "Aman": 39217,
  "Amb": 15387,
  "Ambeien": 36191,
  "Ambil": 28224,
  "Amer": 23109,
  "Amerika": 26975,
  "Amin": 39611,
  "An": 1795,
  "Anak": 8775,
  "Analisa": 47826,
  "Analisis": 34884,
  "And": 16684,
  "Anda": 2775,
  "Andai": 38893,
  "Andi": 40977,
  "Android": 28956,
  "Aneh": 37333,
  "Anehnya": 49456,
  "Aneka": 45418,
  "Ang": 35489,
  "Angg": 12854,
  "Anggaran": 41434,
  "Anggota": 16478,
  "Angk": 16077,
  "Angka": 19806,
  "Anies": 46537,
  "Anime": 46270,
  "Ant": 27118,
  "Antara": 30299,
  "Anti": 38473,
  "Any": 44936,
  "Ap": 2253,
  "Apa": 4910,
  "Apabila": 6801,
  "Apakah": 4951,
  "Apalagi": 13298,
  "Apapun": 23279,
  "Apartemen": 48368,
  "Api": 46870,
  "Aplikasi": 8957,
  "App": 8324,
  "Apple": 35859,
  "Aq": 29480,
  "Ar": 4947,
  "Arab": 37142,
  "Area": 40037,
  "Argi": 45282,
  "Ari": 36973,
  "Arif": 49590,
  "Arsenal": 46949,
  "Art": 14320,
  "Arti": 23387,
  "Artikel": 16587,
  "Artinya": 14638,
  "Artis": 40287,
  "As": 6608,
  "Asal": 31789,
  "Asam": 35222,
  "Ash": 38372,
  "Asia": 20127,
  "Asosiasi": 46950,
  "Aspek": 41125,
  "Ass": 35763,
  "Assalamu": 18633,
  "Assalamualaikum": 23422,
  "Asuransi": 32182,
  "Asus": 48447,
  "Asy": 38433,
  "At": 10493,
  "Atas": 15119,
  "Atau": 15875,
  "Atlet": 47773,
  "Aturan": 30485,
  "Australia": 44388,
  "Aut": 44440,
  "Av": 42878,
  "Awal": 19428,
  "Awalnya": 11640,
  "Ay": 32264,
  "Ayah": 18607,
  "Ayam": 26315,
  "Ayat": 23131,
  "Ayo": 21138,
  "Az": 17867,
  "Azhar": 33318,
  "B": 38,
  "BA": 8539,
  "BAB": 8880,
  "BAG": 44401,
  "BAIK": 36141,
  "BAL": 26169,
  "BAN": 21332,
  "BAND": 35469,
  "BANGK": 39818,
  "BANGKAPOS": 42698,
  "BANJARMASI": 41398,
  "BANJARMASINPOST": 45042,
  "BAR": 42151,
  "BARU": 27222,
  "BAT": 15513,
  "BATAM": 33198,
  "BB": 18352,
  "BBM": 27831,
  "BC": 7778,
  "BCA": 19303,
  "BD": 12765,
  "BDJ": 49409,
  "BE": 44075,
  "BEI": 40732,
  "BEK": 37169,
  "BEL": 46497,
  "BER": 20868,
  "BERITA": 41393,
  "BET": 15701,
  "BH": 27187,
  "BI": 8190,
  "BIH": 40877,
  "BIT": 48094,
  "BJ": 46067,
  "BK": 13163,
  "BKS": 49720,
  "BL": 12578,
  "BM": 4168,
  "BN": 27280,
  "BO": 21383,
  "BP": 14880,
  "BPJS": 41115,
  "BPK": 29931,
  "BPN": 38121,
  "BPOM": 41346,
  "BPS": 36941,
  "BR": 29724,
  "BRI": 46259,
  "BS": 8665,
  "BT": 15293,
  "BTH": 38154,
  "BU": 29546,
  "BUM": 23915,
  "BUMN": 34185,
  "BW": 42185,
  "BX": 47917,
  "Ba": 35862,
  "Bab": 23990,
  "Bac": 29525,
  "Baca": 11695,
  "Back": 28869,
  "Bad": 45820,
  "Badan": 18810,
  "Bag": 31959,
  "Baga": 21520,
  "Bagaimana": 6138,
  "Bagaimanakah": 38988,
  "Bagaimanapun": 29545,
  "Bagi": 3419,
  "Bagian": 14459,
  "Bagus": 26959,
  "Bah": 16453,
  "Bahan": 15234,
  "Bahasa": 21215,
  "Bahaya": 39335,
  "Bahkan": 7149,
  "Bahwa": 19422,
  "Baik": 12006,
  "Baiklah": 19968,
  "Baju": 28186,
  "Bak": 26618,
  "Bakteri": 43254,
  "Bal": 36379,
  "Bali": 24652,
  "Balik": 46015,
  "Bambang": 41556,
  "Ban": 34343,
  "Band": 28607,
  "Bandar": 15942,
  "Bandara": 46408,
  "Bandung": 25169,
  "Bang": 37427,
  "Bangkit": 37752,
  "Bangsa": 28278,
  "Bangun": 40685,
  "Bangunan": 30146,
  "Bank": 18275,
  "Bant": 32162,
  "Bantuan": 25942,
  "Bany": 44357,
  "Banyak": 3967,
  "Banyaknya": 21528,
  "Bapak": 20526,
  "Baq": 26054,
  "Baqarah": 27763,
  "Bar": 15225,
  "Barang": 11707,
  "Barangkali": 39265,
  "Barangsiapa": 22044,
  "Barcelona": 37162,
  "Baru": 14001,
  "Bas": 39843,
  "Bat": 25118,
  "Batang": 40931,
  "Batas": 44929,
  "Baterai": 47455,
  "Batik": 37915,
  "Batu": 22848,
  "Bau": 44885,
  "Bawang": 39195,
  "Bawaslu": 42156,
  "Bay": 18679,
  "Bayangkan": 23974,
  "Bayi": 26176,
  "Be": 22517,
  "Beasiswa": 41751,
  "Beberapa": 4220,
  "Beda": 36795,
  "Begini": 38882,
  "Begitu": 8470,
  "Begitulah": 23030,
  "Bek": 30077,
  "Bekerja": 31611,
  "Bel": 10762,
  "Belajar": 18221,
  "Belakangan": 28572,
  "Belanda": 35226,
  "Belanja": 43352,
  "Beli": 17666,
  "Beliau": 26796,
  "Belum": 12605,
  "Ben": 31418,
  "Benar": 16209,
  "Benarkah": 43897,
  "Benda": 43715,
  "Bener": 49813,
  "Bentuk": 17861,
  "Benz": 42239,
  "Ber": 1684,
  "Berada": 35851,
  "Beragam": 35042,
  "Beralih": 42060,
  "Berangkat": 34565,
  "Berapa": 18135,
  "Berarti": 47836,
  "Berat": 39936,
  "Berawal": 26210,
  "Berb": 7577,
  "Berbagai": 11797,
  "Berbagi": 44580,
  "Berbeda": 12953,
  "Berbekal": 41526,
  "Berbicara": 15650,
  "Berdasar": 49840,
  "Berdasarkan": 6866,
  "Bergabung": 40626,
  "Berh": 25374,
  "Berhubung": 35902,
  "Beri": 46813,
  "Berikan": 31668,
  "Berikut": 4478,
  "Berikutnya": 24846,
  "Berita": 11987,
  "Berjalan": 47174,
  "Berk": 23539,
  "Berkaitan": 34170,
  "Berkat": 27520,
  "Berl": 33367,
  "Bermain": 14441,
  "Berry": 13621,
  "Bers": 23935,
  "Bersama": 22130,
  "Bersamaan": 48530,
  "Bersihkan": 43381,
  "Bersyukur": 45300,
  "Bert": 24674,
  "Bertempat": 46070,
  "Beruntung": 30171,
  "Bes": 37121,
  "Besar": 32002,
  "Besarnya": 49510,
  "Besok": 47136,
  "Best": 34272,
  "Bet": 16116,
  "Betapa": 28973,
  "Betul": 30293,
  "Bi": 8046,
  "Biar": 13338,
  "Biarkan": 36392,
  "Biasanya": 9416,
  "Biaya": 18852,
  "Bicara": 22729,
  "Bidang": 43599,
  "Big": 45592,
  "Bil": 46453,
  "Bila": 6420,
  "Bing": 37879,
  "Bingung": 47598,
  "Bintang": 31876,
  "Biru": 47504,
  "Bis": 35721,
  "Bisa": 10886,
  "Bisnis": 11654,
  "Bitcoin": 34950,
  "Bl": 17876,
  "Black": 24176,
  "Blog": 14123,
  "Blogger": 40469,
  "Blue": 48045,
  "Bo": 26954,
  "Bob": 46689,
  "Bocoran": 34739,
  "Bogor": 40268,
  "Bola": 24797,
  "Boleh": 25874,
  "Bon": 42762,
  "Bonus": 23692,
  "Book": 17250,
  "Bos": 41928,
  "Box": 31442,
  "Boy": 41667,
  "Br": 16737,
  "Brand": 43180,
  "Bro": 22571,
  "Broker": 48288,
  "Brosur": 37748,
  "Btw": 44173,
  "Bu": 23417,
  "Buah": 15507,
  "Buat": 8993,
  "Buatlah": 31797,
  "Bud": 46057,
  "Budaya": 33377,
  "Budi": 35001,
  "Buk": 18571,
  "Buka": 31812,
  "Bukan": 7423,
  "Bukankah": 25326,
  "Bukannya": 43396,
  "Bukhari": 29765,
  "Bukit": 45289,
  "Bukti": 35141,
  "Buku": 11390,
  "Bul": 41649,
  "Bulan": 19738,
  "Bulu": 47540,
  "Bumi": 44542,
  "Bunda": 34007,
  "Bung": 50122,
  "Bunga": 23309,
  "Bupati": 16319,
  "Bur": 32145,
  "Bursa": 47385,
  "Burung": 27449,
  "Bus": 22474,
  "Business": 46470,
  "But": 45243,
  "Butuh": 36933,
  "By": 40512,
  "C": 39,
  "CA": 5741,
  "CAD": 35494,
  "CAR": 49783,
  "CARA": 31333,
  "CAT": 46006,
  "CAYA": 28890,
  "CB": 43716,
  "CC": 12663,
  "CD": 8504,
  "CE": 20896,
  "CEF": 46559,
  "CEO": 42751,
  "CG": 17012,
  "CGC": 37097,
  "CGK": 38229,
  "CH": 15573,
  "CI": 17951,
  "CK": 24303,
  "CL": 23142,
  "CM": 23597,
  "CN": 29590,
  "CO": 6730,
  "COIN": 47491,
  "COM": 6225,
  "CP": 19209,
  "CPNS": 31458,
  "CR": 25139,
  "CS": 16771,
  "CT": 31699,
  "CU": 45628,
  "CV": 29213,
  "Cak": 41494,
  "Call": 45586,
  "Calon": 27231,
  "Campurkan": 44738,
  "Candi": 40320,
  "Cap": 28464,
  "Car": 19524,
  "Cara": 3009,
  "Caranya": 21210,
  "Card": 35483,
  "Cari": 24810,
  "Carilah": 44582,
  "Cash": 38007,
  "Casino": 39543,
  "Cat": 38194,
  "Catatan": 15506,
  "Cek": 22699,
  "Cel": 31112,
  "Celana": 46126,
  "Ceme": 37401,
  "Cepat": 33307,
  "Cer": 41833,
  "Cerita": 13029,
  "Ceritanya": 40841,
  "Ch": 9794,
  "Char": 43555,
  "Chat": 37200,
  "Chelsea": 40301,
  "Chi": 44038,
  "China": 37226,
  "Cinta": 18766,
  "Cir": 49009,
  "Ciri": 15754,
  "City": 39470,
  "Cl": 19155,
  "Class": 45642,
  "Cloud": 31631,
  "Club": 46082,
  "Co": 21764,
  "Coba": 16947,
  "Cobalah": 26484,
  "Coin": 37011,
  "Cok": 44863,
  "Com": 10591,
  "Comm": 44768,
  "Commerce": 29900,
  "Comp": 36062,
  "Con": 28969,
  "Cont": 30347,
  "Contoh": 9066,
  "Contohnya": 22442,
  "Cor": 39869,
  "Core": 49866,
  "Cr": 40544,
  "Cream": 38152,
  "Cry": 38294,
  "Cuaca": 47811,
  "Cukup": 16615,
  "Cuma": 30174,
  "D": 40,
  "DA": 7411,
  "DAH": 9819,
  "DAHUL": 10239,
  "DAHULUAN": 10261,
  "DAK": 35525,
  "DAS": 47471,
  "DAY": 40484,
  "DB": 16073,
  "DC": 23979,
  "DD": 27530,
  "DE": 28197,
  "DEL": 47805,
  "DEN": 38040,
  "DER": 43292,
  "DI": 3615,
  "DIA": 33059,
  "DII": 37833,
  "DIK": 34394,
  "DIO": 50190,
  "DIP": 32988,
  "DIRI": 20692,
  "DJ": 45961,
  "DK": 24167,
  "DL": 19260,
  "DM": 16585,
  "DN": 23336,
  "DO": 26124,
  "DP": 11751,
  "DPD": 46885,
  "DPP": 49926,
  "DPR": 21232,
  "DPRD": 32976,
  "DPS": 37778,
  "DPT": 34119,
  "DR": 12296,
  "DS": 19247,
  "DVD": 34208,
  "DW": 48054,
  "Da": 14425,
  "Daerah": 31120,
  "Daftar": 10087,
  "Daging": 39528,
  "Dah": 41208,
  "Dahulu": 33963,
  "Dalam": 1813,
  "Dampak": 27854,
  "Dan": 2970,
  "Dana": 27947,
  "Danau": 39558,
  "Dani": 39851,
  "Dapat": 19957,
  "Dapatkan": 18963,
  "Dapur": 48478,
  "Dar": 39988,
  "Dari": 3172,
  "Daripada": 42211,
  "Dasar": 30458,
  "Data": 14180,
  "Datang": 36900,
  "Daun": 25360,
  "Dav": 35280,
  "David": 39180,
  "Day": 44102,
  "Daya": 34474,
  "De": 23426,
  "Deal": 48471,
  "Dear": 33847,
  "Def": 45707,
  "Definisi": 31061,
  "Dek": 35324,
  "Del": 39674,
  "Dem": 18831,
  "Demi": 20422,
  "Demikian": 4843,
  "Demikianlah": 9615,
  "Den": 37122,
  "Dengan": 2118,
  "Dep": 18048,
  "Departemen": 47217,
  "Depok": 49209,
  "Der": 37407,
  "Des": 18287,
  "Desa": 19683,
  "Desain": 13410,
  "Desember": 49338,
  "Design": 49661,
  "Deskripsi": 33382,
  "Destinasi": 42152,
  "Det": 43353,
  "Detail": 50143,
  "Detik": 46278,
  "Dev": 40142,
  "Dewa": 38583,
  "Dewan": 36469,
  "Dewasa": 32574,
  "Dewi": 36499,
  "Di": 1758,
  "Dia": 4210,
  "Diabetes": 41169,
  "Diakui": 40145,
  "Diam": 47415,
  "Dian": 15027,
  "Diantara": 17843,
  "Diatas": 41820,
  "Dib": 14388,
  "Dibalik": 49585,
  "Dibandingkan": 35767,
  "Dibawah": 24270,
  "Dic": 31671,
  "Did": 16534,
  "Didalam": 28263,
  "Diduga": 49333,
  "Diet": 31243,
  "Dig": 33292,
  "Digital": 43929,
  "Dih": 43677,
  "Diharapkan": 23781,
  "Dij": 18149,
  "Dijelaskan": 26703,
  "Dijelaskannya": 42861,
  "Dik": 8212,
  "Dikarenakan": 36002,
  "Dikatakan": 14686,
  "Dikatakannya": 31563,
  "Diketahui": 22418,
  "Dikutip": 19110,
  "Dil": 9916,
  "Dilansir": 17127,
  "Dilengkapi": 50097,
  "Dilihat": 26391,
  "Dim": 23248,
  "Dimana": 19507,
  "Dimulai": 37158,
  "Din": 30613,
  "Dinas": 29699,
  "Dip": 21786,
  "Diper": 45215,
  "Diperkirakan": 46904,
  "Dir": 12086,
  "Direktur": 17662,
  "Diri": 33986,
  "Dirinya": 24687,
  "Diriwayatkan": 37507,
  "Dis": 6017,
  "Disaat": 40173,
  "Disampaikan": 46199,
  "Disamping": 19623,
  "Disebut": 40241,
  "Disebutkan": 32817,
  "Disinggung": 48670,
  "Disini": 17429,
  "Disisi": 38952,
  "Disk": 33560,
  "Diskusi": 44808,
  "Distributor": 33619,
  "Dit": 10449,
  "Ditambah": 34383,
  "Ditambahkan": 19664,
  "Ditambahkannya": 40343,
  "Ditanya": 40034,
  "Div": 45317,
  "Djar": 48327,
  "Do": 25570,
  "Doa": 31839,
  "Dok": 26931,
  "Dokter": 20210,
  "Dokumen": 49334,
  "Dom": 20143,
  "Domain": 49605,
  "Domino": 25113,
  "Dompet": 42783,
  "Don": 37160,
  "Dong": 42471,
  "Dosen": 40073,
  "Download": 12293,
  "Dr": 13522,
  "Drama": 29982,
  "Draw": 49737,
  "Dri": 34524,
  "Drive": 44071,
  "Dua": 10785,
  "Duh": 48055,
  "Duk": 26970,
  "Dukungan": 30774,
  "Dulu": 14918,
  "Dunia": 17115,
  "E": 41,
  "EA": 11275,
  "EAN": 12103,
  "EB": 9339,
  "EC": 10001,
  "ED": 5407,
  "EDA": 39820,
  "EDAN": 30228,
  "EDI": 18811,
  "EDIA": 36502,
  "EDIKSI": 46529,
  "EE": 24281,
  "EF": 10873,
  "EFA": 20616,
  "EFL": 25704,
  "EG": 6896,
  "EH": 19801,
  "EI": 12825,
  "EJ": 32343,
  "EK": 6535,
  "EKA": 38042,
  "EKSI": 46780,
  "EL": 4268,
  "ELI": 18236,
  "ELITIAN": 23690,
  "ELL": 22743,
  "ELLY": 40019,
  "ELTS": 37334,
  "EM": 4118,
  "EMA": 40278,
  "EMB": 11055,
  "EMBANG": 40280,
  "EMBER": 49644,
  "EMEN": 44289,
  "EMI": 40491,
  "EN": 2398,
  "ENA": 25242,
  "ENC": 40082,
  "END": 19803,
  "ENG": 9997,
  "ENGAN": 27458,
  "ENGK": 37696,
  "ENGKAP": 47908,
  "ENSI": 44150,
  "ENT": 13993,
  "ENTANG": 38873,
  "ENTUAN": 46724,
  "EO": 8847,
  "EP": 9461,
  "EPAT": 37944,
  "ER": 2066,
  "ERA": 28674,
  "ERAH": 35619,
  "ERANG": 39964,
  "ERI": 28678,
  "ERS": 33152,
  "ES": 3812,
  "ESAR": 28228,
  "ESCO": 24563,
  "ESI": 10211,
  "ESIN": 43248,
  "ESQ": 39546,
  "ESS": 31028,
  "EST": 18870,
  "ET": 4069,
  "EW": 25648,
  "EWS": 30013,
  "EX": 15378,
  "Ed": 26143,
  "Ef": 18168,
  "Efek": 22631,
  "Eh": 26945,
  "Ek": 18251,
  "Eks": 30543,
  "Eksp": 37447,
  "El": 20272,
  "Em": 13835,
  "Emang": 50240,
  "Emas": 37693,
  "Empat": 25012,
  "En": 9305,
  "Enam": 42080,
  "Energi": 43137,
  "Eng": 23792,
  "Enggak": 43546,
  "Engkau": 33802,
  "Entah": 16653,
  "Ep": 35512,
  "Episode": 49563,
  "Er": 23133,
  "Era": 44303,
  "Eropa": 48297,
  "Es": 23054,
  "Eun": 47190,
  "Ev": 35538,
  "Event": 35352,
  "Ex": 19065,
  "F": 42,
  "FA": 16778,
  "FC": 11461,
  "FD": 40027,
  "FE": 35890,
  "FF": 13202,
  "FI": 15129,
  "FIT": 35981,
  "FK": 33288,
  "FL": 21551,
  "FM": 33580,
  "FO": 15924,
  "FOR": 29852,
  "FP": 38509,
  "FR": 41102,
  "FS": 27314,
  "FT": 16262,
  "FTAR": 29953,
  "FW": 44683,
  "FX": 28058,
  "Fa": 43666,
  "Facebook": 29897,
  "Fak": 30840,
  "Fakta": 21015,
  "Faktanya": 33361,
  "Faktor": 16434,
  "Fakultas": 35373,
  "Far": 49580,
  "Fase": 47307,
  "Fashion": 49946,
  "Fasilitas": 22681,
  "Fat": 45936,
  "Fatihah": 47362,
  "Fenomena": 29596,
  "Festival": 37439,
  "Fi": 9561,
  "Fil": 27259,
  "File": 37847,
  "Film": 12301,
  "Fin": 34912,
  "Finder": 24629,
  "Fiq": 39557,
  "Fiqhislam": 47353,
  "Fir": 33125,
  "Firman": 41981,
  "Fitur": 16381,
  "Fl": 47129,
  "Flash": 43535,
  "Fokus": 34877,
  "Fone": 29277,
  "Food": 42928,
  "Football": 45988,
  "For": 18183,
  "Force": 39332,
  "Forex": 22329,
  "Form": 29271,
  "Format": 48028,
  "Forum": 31286,
  "Foto": 14878,
  "Fr": 22205,
  "Fre": 40686,
  "Free": 34499,
  "Full": 37952,
  "Fungsi": 17104,
  "G": 43,
  "GA": 7624,
  "GAN": 47137,
  "GAR": 49103,
  "GAS": 50207,
  "GAT": 47942,
  "GB": 5162,
  "GBT": 22230,
  "GC": 35507,
  "GD": 17724,
  "GE": 26108,
  "GEL": 48290,
  "GER": 42074,
  "GG": 30750,
  "GH": 28690,
  "GHT": 41480,
  "GHz": 28296,
  "GI": 14636,
  "GIN": 34902,
  "GINAL": 45276,
  "GK": 26342,
  "GL": 36115,
  "GM": 9034,
  "GMP": 45098,
  "GN": 28470,
  "GO": 17503,
  "GP": 8121,
  "GPS": 47677,
  "GR": 23296,
  "GS": 23942,
  "GT": 39795,
  "GU": 25410,
  "Ga": 34044,
  "Gadget": 46618,
  "Gadis": 28252,
  "Gag": 33997,
  "Gak": 28624,
  "Gal": 39552,
  "Gam": 34330,
  "Gambar": 15458,
  "Game": 12912,
  "Gangguan": 33769,
  "Ganti": 40788,
  "Gar": 44763,
  "Garis": 45337,
  "Gatal": 47472,
  "Gaya": 23375,
  "Gb": 47221,
  "Ge": 32099,
  "Gedung": 37716,
  "Gejala": 14610,
  "Gel": 30525,
  "Gelandang": 49773,
  "Gelar": 50152,
  "Gempa": 41209,
  "Gen": 37452,
  "Gener": 42086,
  "Generasi": 33821,
  "Ger": 13360,
  "Gerakan": 24264,
  "Gereja": 32885,
  "Germain": 44463,
  "Get": 49711,
  "Gh": 27918,
  "Ghazali": 41004,
  "Gimana": 29427,
  "Gl": 28995,
  "Go": 12484,
  "Gol": 27433,
  "Gold": 37365,
  "Good": 39310,
  "Google": 18876,
  "Gr": 23579,
  "Grand": 45806,
  "Green": 33275,
  "Grup": 44222,
  "Gs": 42364,
  "Gu": 39354,
  "Gua": 47809,
  "Gubernur": 20565,
  "Gue": 25000,
  "Gun": 20521,
  "Guna": 30379,
  "Gunakan": 16885,
  "Gunung": 25064,
  "Guru": 18966,
  "Gus": 35255,
  "Gw": 46664,
  "H": 44,
  "HA": 13930,
  "HAK": 46839,
  "HAM": 33207,
  "HAN": 21701,
  "HAR": 39826,
  "HAT": 27989,
  "HB": 34347,
  "HC": 38163,
  "HD": 17337,
  "HE": 46086,
  "HER": 45395,
  "HF": 46284,
  "HH": 44039,
  "HI": 15974,
  "HION": 48335,
  "HK": 19947,
  "HLP": 33001,
  "HM": 42112,
  "HN": 45261,
  "HND": 48106,
  "HO": 14649,
  "HP": 8968,
  "HPV": 29518,
  "HR": 8171,
  "HS": 14739,
  "HSG": 25660,
  "HT": 18777,
  "Ha": 23501,
  "Hab": 35768,
  "Had": 13546,
  "Hadiah": 43146,
  "Hadir": 25818,
  "Hadirnya": 40452,
  "Hadis": 40067,
  "Hadits": 27333,
  "Haf": 45017,
  "Hai": 12071,
  "Hajar": 48157,
  "Hak": 19858,
  "Hakim": 34104,
  "Hal": 2987,
  "Halaman": 35136,
  "Hallo": 26762,
  "Halo": 15149,
  "Ham": 34632,
  "Hampir": 15000,
  "Han": 28753,
  "Hand": 34759,
  "Hanya": 9179,
  "Har": 10008,
  "Harap": 23909,
  "Harapan": 18695,
  "Harapannya": 34220,
  "Hard": 41791,
  "Harga": 5620,
  "Hari": 7014,
  "Harus": 20555,
  "Harusnya": 50099,
  "Has": 46765,
  "Hasan": 37723,
  "Hasil": 7923,
  "Hasilnya": 23637,
  "Hati": 22563,
  "Hatta": 23740,
  "He": 34825,
  "Head": 41110,
  "Hei": 39338,
  "Hel": 39205,
  "Hello": 37907,
  "Hem": 45277,
  "Her": 35017,
  "Hewan": 41716,
  "Hey": 42518,
  "Hg": 48526,
  "Hi": 23167,
  "Hid": 38999,
  "Hidup": 17700,
  "High": 41753,
  "Hindari": 23678,
  "Hingga": 11475,
  "Hip": 46401,
  "Hitam": 30950,
  "Hmm": 29032,
  "Hmmm": 47001,
  "Ho": 44091,
  "Home": 24333,
  "Honda": 30131,
  "Hong": 49678,
  "Hot": 41464,
  "Hotel": 13802,
  "How": 45096,
  "Hp": 44422,
  "Hu": 41011,
  "Hub": 48457,
  "Hubungan": 23168,
  "Hubungi": 48637,
  "Hujan": 36304,
  "Hukum": 22480,
  "Hum": 39227,
  "Humas": 31542,
  "Hus": 48887,
  "Hutan": 44522,
  "Hy": 34194,
  "Hz": 11750,
  "I": 45,
  "IA": 9375,
  "IB": 3534,
  "IC": 9701,
  "ICE": 23529,
  "ID": 4046,
  "IDEO": 43002,
  "IDS": 11634,
  "IF": 8382,
  "IFI": 37130,
  "IH": 45463,
  "II": 4438,
  "IIAS": 32056,
  "III": 12202,
  "IK": 5285,
  "IKA": 19432,
  "IKAN": 40632,
  "IKASI": 44082,
  "IL": 7632,
  "ILE": 49076,
  "ILI": 27679,
  "ILIHAN": 41116,
  "IM": 4011,
  "IMA": 22828,
  "IMB": 14532,
  "IMM": 36679,
  "IMS": 42300,
  "IN": 2154,
  "INA": 26005,
  "INAN": 30080,
  "IND": 14356,
  "INDO": 23395,
  "INE": 9650,
  "INFO": 30249,
  "ING": 7218,
  "INI": 36196,
  "INK": 27226,
  "INO": 29568,
  "INT": 29539,
  "INTA": 31592,
  "IP": 6818,
  "IPOST": 44243,
  "IQ": 47122,
  "IR": 12565,
  "IRT": 39501,
  "IS": 4357,
  "ISA": 20947,
  "ISI": 39016,
  "ISK": 47324,
  "IST": 24464,
  "IT": 5767,
  "ITA": 13634,
  "ITAS": 31323,
  "ITB": 49507,
  "ITE": 44369,
  "ITY": 43049,
  "IU": 35390,
  "IV": 6362,
  "IVA": 27884,
  "IVE": 33786,
  "Ia": 4709,
  "Ib": 13920,
  "Ibarat": 45805,
  "Ibnu": 26892,
  "Ibu": 9603,
  "Id": 22625,
  "Ide": 20622,
  "Idealnya": 47567,
  "If": 43404,
  "Ik": 16965,
  "Ikan": 21011,
  "Ikatan": 49304,
  "Ikh": 38859,
  "Iklan": 34928,
  "Ikuti": 45545,
  "Il": 16275,
  "Ilmu": 21252,
  "Im": 11746,
  "Image": 44445,
  "Imam": 19967,
  "Iman": 45153,
  "In": 1989,
  "Ind": 5538,
  "Indeks": 36568,
  "India": 48991,
  "Indikator": 45552,
  "Indo": 30325,
  "Indonesia": 7753,
  "Indotrading": 48439,
  "Industri": 33231,
  "Inf": 10900,
  "Infeksi": 28285,
  "Info": 16126,
  "Informasi": 10170,
  "Ing": 11482,
  "Ingat": 15219,
  "Ingatlah": 31011,
  "Inggris": 24660,
  "Ingin": 15898,
  "Ini": 2907,
  "Inilah": 10232,
  "Injil": 47375,
  "Inovasi": 42273,
  "Ins": 16239,
  "Inspirasi": 48407,
  "Inst": 33851,
  "Instagram": 42558,
  "Insya": 26522,
  "Int": 36889,
  "Inter": 27392,
  "Intern": 27706,
  "Internasional": 39596,
  "International": 44633,
  "Internet": 25831,
  "Inti": 38228,
  "Intinya": 20100,
  "Intl": 20247,
  "Investasi": 31098,
  "Ion": 49702,
  "Ir": 18749,
  "Is": 9821,
  "Isa": 47178,
  "Isi": 27539,
  "Islam": 16638,
  "Israel": 35910,
  "Ist": 15814,
  "Istilah": 24054,
  "Istri": 33603,
  "Isu": 38070,
  "It": 34651,
  "Item": 49173,
  "Itu": 3621,
  "Itulah": 5078,
  "Iya": 12747,
  "J": 46,
  "JA": 9796,
  "JAB": 47682,
  "JADI": 49643,
  "JAK": 44974,
  "JAKARTA": 11178,
  "JAM": 35899,
  "JAR": 19368,
  "JARMASI": 37273,
  "JAUAN": 34968,
  "JB": 21353,
  "JEK": 35522,
  "JI": 16959,
  "JIAN": 44147,
  "JIB": 35184,
  "JK": 11179,
  "JNE": 13390,
  "JO": 26793,
  "JOG": 35534,
  "JP": 22021,
  "JPY": 41799,
  "JS": 7099,
  "JT": 38071,
  "JU": 17041,
  "JUAL": 41230,
  "JUR": 44117,
  "Ja": 33722,
  "Jack": 41176,
  "Jadi": 3375,
  "Jadikan": 49893,
  "Jadilah": 32151,
  "Jadwal": 22047,
  "Jakarta": 6758,
  "Jaket": 41308,
  "Jalan": 17413,
  "Jalur": 32992,
  "Jam": 15593,
  "Jaman": 44009,
  "Jan": 35992,
  "Jangan": 4858,
  "Janganlah": 26072,
  "Jarak": 34951,
  "Jaringan": 32597,
  "Jas": 45989,
  "Jasa": 13772,
  "Jatim": 43901,
  "Jauh": 30591,
  "Jawa": 10706,
  "JawaPos": 40093,
  "Jawab": 28119,
  "Jawaban": 25896,
  "Jawabannya": 36959,
  "Je": 50241,
  "Jek": 27481,
  "Jelas": 22621,
  "Jelly": 42587,
  "Jembatan": 35237,
  "Jenis": 10734,
  "Jepang": 25262,
  "Jerawat": 37969,
  "Jerman": 41265,
  "Ji": 36206,
  "Jika": 1661,
  "Jikalau": 33746,
  "Jin": 36386,
  "Jo": 33449,
  "Jogja": 43117,
  "John": 32974,
  "Joker": 45937,
  "Jokowi": 17927,
  "Ju": 32191,
  "Jual": 10184,
  "Juara": 37930,
  "Judi": 14681,
  "Judul": 33620,
  "Juga": 18763,
  "Jujur": 24534,
  "Juli": 44434,
  "Jum": 46238,
  "Jumat": 33896,
  "Jumlah": 13828,
  "Jung": 45493,
  "Juni": 48556,
  "Jurnal": 36987,
  "Juru": 38686,
  "Jurusan": 48932,
  "Jus": 41381,
  "Justru": 38765,
  "Juventus": 46409,
  "K": 47,
  "KA": 9745,
  "KAB": 28324,
  "KAN": 11648,
  "KAR": 38155,
  "KAT": 38756,
  "KB": 7167,
  "KBBI": 34658,
  "KBN": 39284,
  "KBP": 37157,
  "KBR": 48671,
  "KD": 37520,
  "KE": 34659,
  "KER": 43305,
  "KES": 45464,
  "KET": 49233,
  "KG": 12407,
  "KH": 31106,
  "KI": 2426,
  "KIN": 49679,
  "KIP": 15318,
  "KIR": 39523,
  "KIS": 30677,
  "KIT": 32832,
  "KK": 22668,
  "KL": 18163,
  "KM": 4441,
  "KN": 8168,
  "KNO": 49653,
  "KO": 18794,
  "KOM": 22804,
  "KOMPAS": 44570,
  "KON": 34955,
  "KP": 5611,
  "KPD": 14386,
  "KPK": 20200,
  "KPM": 36391,
  "KPN": 49796,
  "KPU": 15832,
  "KR": 46545,
  "KRI": 11591,
  "KS": 10521,
  "KSI": 39644,
  "KT": 11996,
  "KTP": 15196,
  "KU": 12513,
  "KUL": 31037,
  "Ka": 15642,
  "Kab": 16738,
  "Kabar": 14858,
  "Kabarnya": 41859,
  "Kabid": 47418,
  "Kabupaten": 16709,
  "Kac": 48841,
  "Kad": 49232,
  "Kadang": 17439,
  "Kah": 47930,
  "Kain": 45180,
  "Kak": 27349,
  "Kakak": 43656,
  "Kal": 16858,
  "Kala": 42593,
  "Kalau": 3600,
  "Kalaupun": 49335,
  "Kali": 10508,
  "Kalian": 19745,
  "Kalimat": 34073,
  "Kalo": 17123,
  "Kamar": 23531,
  "Kamera": 30257,
  "Kami": 2268,
  "Kamis": 33034,
  "Kampanye": 48223,
  "Kampung": 47043,
  "Kampus": 50016,
  "Kamu": 5146,
  "Kan": 15693,
  "Kandungan": 19186,
  "Kang": 34370,
  "Kanker": 24253,
  "Kantor": 33269,
  "Kaos": 38030,
  "Kap": 29345,
  "Kapal": 36197,
  "Kapan": 28148,
  "Kapasitas": 40277,
  "Kapolres": 27586,
  "Kapolsek": 35567,
  "Kar": 8671,
  "Karakter": 26938,
  "Karakteristik": 48485,
  "Karena": 3414,
  "Karenanya": 28155,
  "Kari": 45932,
  "Karna": 39900,
  "Kart": 48957,
  "Kartu": 22174,
  "Karya": 32645,
  "Kas": 12753,
  "Kasat": 45500,
  "Kasih": 46380,
  "Kasino": 45906,
  "Kasus": 18591,
  "Kat": 27018,
  "Kata": 9991,
  "Katakanlah": 36770,
  "Katanya": 27216,
  "Kategori": 39946,
  "Kau": 15840,
  "Kaum": 38022,
  "Kawan": 47599,
  "Kawasan": 34195,
  "Kayu": 39756,
  "Ke": 4826,
  "Keadaan": 30826,
  "Keamanan": 43183,
  "Keb": 6578,
  "Kebanyakan": 14376,
  "Keber": 13852,
  "Keberadaan": 22120,
  "Keberhasilan": 31678,
  "Kebetulan": 28370,
  "Kebiasaan": 27166,
  "Kebijakan": 25206,
  "Kebutuhan": 21743,
  "Kec": 13331,
  "Kecamatan": 33570,
  "Kecantikan": 49400,
  "Kecepatan": 42567,
  "Kecuali": 26468,
  "Ked": 6076,
  "Kedatangan": 33120,
  "Kedua": 7667,
  "Keduanya": 26627,
  "Keempat": 19774,
  "Keenam": 47052,
  "Keesokan": 32179,
  "Keg": 31268,
  "Kegagalan": 46987,
  "Kegiatan": 7737,
  "Keh": 12856,
  "Kehadiran": 22011,
  "Kehidupan": 26779,
  "Keindahan": 36175,
  "Keinginan": 40112,
  "Kej": 19268,
  "Kejadian": 18579,
  "Kek": 16457,
  "Kekalahan": 42789,
  "Kekuatan": 29822,
  "Kekurangan": 32887,
  "Kel": 8505,
  "Kelambu": 49189,
  "Kelas": 33665,
  "Kelebihan": 17655,
  "Kelemahan": 40560,
  "Kelima": 30048,
  "Kelompok": 20768,
  "Keluar": 37896,
  "Keluarga": 23563,
  "Kelurahan": 46220,
  "Kem": 4142,
  "Kemajuan": 41735,
  "Kemampuan": 21461,
  "Kemarin": 24162,
  "Kematian": 47410,
  "Kembali": 16887,
  "Kemen": 15784,
  "Kemenangan": 24706,
  "Kementerian": 28540,
  "Kemudahan": 29585,
  "Kemudian": 6119,
  "Kemungkinan": 27814,
  "Ken": 8465,
  "Kenaikan": 40066,
  "Kenapa": 10788,
  "Kencing": 45494,
  "Kend": 16432,
  "Kendaraan": 46349,
  "Kendati": 21703,
  "Kep": 5059,
  "Kepada": 15456,
  "Kepala": 8112,
  "Kepem": 48564,
  "Kepercayaan": 46657,
  "Keputihan": 39984,
  "Keputusan": 23226,
  "Ker": 11488,
  "Kerajaan": 45821,
  "Keren": 43996,
  "Kereta": 43187,
  "Kerja": 27750,
  "Kerjasama": 47692,
  "Kerusakan": 42667,
  "Kes": 6118,
  "Kesalahan": 29193,
  "Kesan": 41266,
  "Kesehatan": 26754,
  "Kesel": 49113,
  "Kesempatan": 34203,
  "Kesimpulan": 14741,
  "Kesimpulannya": 33976,
  "Kesuksesan": 43162,
  "Ket": 8364,
  "Ketahuilah": 35773,
  "Ketentuan": 43246,
  "Keter": 19912,
  "Keterangan": 29810,
  "Ketidak": 39041,
  "Ketiga": 12380,
  "Ketika": 3789,
  "Ketua": 9053,
  "Keunggulan": 23642,
  "Keunikan": 43862,
  "Keuntungan": 17646,
  "Key": 35600,
  "Kg": 43667,
  "Kh": 15826,
  "Khasiat": 25402,
  "Khusus": 15427,
  "Khususnya": 47241,
  "Ki": 24787,
  "Kim": 32134,
  "Kinerja": 49234,
  "King": 43408,
  "Kini": 10231,
  "Kira": 39400,
  "Kis": 49383,
  "Kisah": 15310,
  "Kit": 44324,
  "Kita": 3952,
  "Kitab": 31858,
  "Klik": 26729,
  "Klub": 40294,
  "Ko": 23917,
  "Kode": 19736,
  "Kok": 35018,
  "Kol": 23044,
  "Kolam": 45447,
  "Koleksi": 36562,
  "Kom": 9999,
  "Kombinasi": 40085,
  "Komentar": 42741,
  "Komisi": 23095,
  "Komitmen": 47337,
  "Komp": 15401,
  "Kompas": 47479,
  "Kompetisi": 37817,
  "Komponen": 44859,
  "Komputer": 39207,
  "Komunikasi": 32123,
  "Komunitas": 31579,
  "Kon": 9401,
  "Kondisi": 12785,
  "Konflik": 48114,
  "Konon": 32739,
  "Kons": 11823,
  "Konsep": 19436,
  "Konsumen": 46451,
  "Konsumsi": 35919,
  "Kont": 38330,
  "Konten": 45396,
  "Kontrak": 48653,
  "Konveksi": 49852,
  "Koordinator": 49615,
  "Kopi": 28543,
  "Kor": 25108,
  "Korban": 30785,
  "Korea": 38731,
  "Kos": 44940,
  "Kota": 8753,
  "Kr": 35803,
  "Kredit": 48722,
  "Kris": 33929,
  "Kriteria": 49532,
  "Ku": 7792,
  "Kualitas": 25601,
  "Kucing": 39749,
  "Kue": 33369,
  "Kul": 32173,
  "Kuliah": 45033,
  "Kulit": 23530,
  "Kumpulan": 30902,
  "Kunci": 29420,
  "Kunjungan": 27113,
  "Kup": 43908,
  "Kur": 15213,
  "Kurang": 26144,
  "Kurangnya": 48779,
  "Kurikulum": 48101,
  "Kursi": 27543,
  "Kursus": 38966,
  "Kutil": 24356,
  "Ky": 38455,
  "Kyuhyun": 49095,
  "L": 48,
  "LA": 16631,
  "LAH": 14783,
  "LAN": 23594,
  "LB": 32665,
  "LC": 20716,
  "LD": 21333,
  "LE": 17232,
  "LG": 39976,
  "LH": 30301,
  "LI": 13944,
  "LIF": 46792,
  "LIK": 49132,
  "LINE": 29932,
  "LIS": 36288,
  "LK": 34896,
  "LL": 27114,
  "LN": 50163,
  "LO": 42627,
  "LOP": 35628,
  "LP": 13873,
  "LS": 19900,
  "LSM": 49457,
  "LU": 27454,
  "La": 17720,
  "Lab": 39641,
  "Laga": 27727,
  "Lagi": 20058,
  "Lagu": 18121,
  "Lah": 45342,
  "Lahir": 43965,
  "Lain": 23816,
  "Laki": 30866,
  "Lakukan": 18863,
  "Lalu": 6576,
  "Lama": 32668,
  "Lamp": 49906,
  "Lampu": 38648,
  "Land": 47034,
  "Langkah": 9172,
  "Langsung": 33150,
  "Lanjut": 21862,
  "Lanjutnya": 33712,
  "Lantai": 50076,
  "Lantas": 18890,
  "Lap": 22148,
  "Laporan": 21103,
  "Laptop": 28698,
  "Latar": 41164,
  "Latihan": 28157,
  "Layaknya": 43735,
  "Layanan": 17963,
  "Layar": 42392,
  "Le": 26195,
  "Lebih": 6853,
  "Lee": 35853,
  "Leg": 38804,
  "Lelaki": 42770,
  "Lem": 21750,
  "Lemari": 48619,
  "Lembaga": 23953,
  "Lenovo": 49511,
  "Lepas": 42686,
  "Les": 47541,
  "Let": 46115,
  "Letak": 40524,
  "Lewat": 27784,
  "Lho": 49600,
  "Li": 36405,
  "Liburan": 33815,
  "Lidah": 48486,
  "Life": 42224,
  "Liga": 31208,
  "Lihat": 13775,
  "Lihatlah": 33967,
  "Lima": 27277,
  "Lin": 36638,
  "Line": 44652,
  "Lingkungan": 38993,
  "Link": 23534,
  "Linux": 45066,
  "Lip": 24636,
  "Liputan": 31215,
  "Lirik": 28720,
  "Live": 40945,
  "Liverpool": 40611,
  "Lo": 26402,
  "Log": 30850,
  "Lok": 39861,
  "Lokasi": 15215,
  "Lokasinya": 46945,
  "Lomba": 31048,
  "Lombok": 49746,
  "London": 50257,
  "Long": 48479,
  "Love": 47035,
  "Low": 47600,
  "Lowongan": 23346,
  "Lu": 49916,
  "Luar": 44027,
  "Luc": 39745,
  "Luk": 26923,
  "Luka": 48492,
  "Lukas": 44742,
  "Lulusan": 48920,
  "Lum": 40364,
  "M": 49,
  "MA": 6352,
  "MAD": 38564,
  "MAK": 36774,
  "MAL": 49970,
  "MALANG": 25546,
  "MALANGVOICE": 37247,
  "MAN": 18477,
  "MANADO": 45437,
  "MAR": 50247,
  "MAS": 33187,
  "MASI": 26614,
  "MAT": 35272,
  "MAX": 26599,
  "MB": 15073,
  "MC": 19826,
  "MD": 9778,
  "MDC": 50083,
  "ME": 21225,
  "MEDAN": 37859,
  "MEN": 36756,
  "MH": 37919,
  "MI": 5518,
  "MIN": 42277,
  "MIPA": 33026,
  "MIT": 47266,
  "MK": 20420,
  "ML": 21571,
  "MLG": 48136,
  "MM": 25541,
  "MN": 38521,
  "MO": 28594,
  "MP": 10525,
  "MPTN": 19607,
  "MR": 41318,
  "MS": 11155,
  "MT": 19125,
  "MTs": 26563,
  "MU": 21097,
  "MUI": 31041,
  "Ma": 8434,
  "Maaf": 16430,
  "Maafkan": 48125,
  "Mac": 33723,
  "Macam": 38563,
  "Mad": 20431,
  "Madrasah": 49008,
  "Madu": 31341,
  "Madura": 43851,
  "Mag": 33383,
  "Mah": 21644,
  "Mahasiswa": 19216,
  "Maidah": 47976,
  "Main": 35178,
  "Maj": 21945,
  "Majalah": 48037,
  "Majelis": 43413,
  "Mak": 16012,
  "Maka": 6163,
  "Makan": 9198,
  "Makanan": 12983,
  "Makanya": 25057,
  "Makasih": 46597,
  "Makassar": 44813,
  "Makin": 45318,
  "Makna": 38617,
  "Maksud": 19815,
  "Maksudnya": 29761,
  "Mal": 24137,
  "Malah": 42687,
  "Malam": 16908,
  "Malang": 35111,
  "Malaysia": 46442,
  "Mall": 33177,
  "Mama": 38826,
  "Mampu": 41035,
  "Man": 9604,
  "Mana": 16876,
  "Manado": 36587,
  "Manaj": 19878,
  "Manajemen": 27175,
  "Manajer": 33808,
  "Manchester": 35082,
  "Manfaat": 10588,
  "Manfaatkan": 48921,
  "Mantan": 18063,
  "Manusia": 17466,
  "Maps": 44548,
  "Mar": 12054,
  "Mari": 14453,
  "Marilah": 43279,
  "Mark": 34795,
  "Market": 35089,
  "Mart": 34735,
  "Mas": 4975,
  "Masa": 17080,
  "Masalah": 11324,
  "Masalahnya": 30394,
  "Masih": 8136,
  "Masing": 27423,
  "Masjid": 30015,
  "Masker": 48394,
  "Master": 32569,
  "Masuk": 29728,
  "Masukkan": 38754,
  "Masyarakat": 14394,
  "Mat": 13187,
  "Mata": 21543,
  "Matahari": 46562,
  "Materi": 28945,
  "Matius": 33215,
  "Mau": 15542,
  "Max": 26392,
  "May": 25633,
  "Mayoritas": 38515,
  "Maz": 36306,
  "Mazmur": 47121,
  "Mbak": 30823,
  "Mbps": 46599,
  "Mc": 48898,
  "Me": 28939,
  "Med": 38079,
  "Medan": 30140,
  "Media": 17057,
  "Mei": 45328,
  "Meja": 32120,
  "Mel": 5277,
  "Melakukan": 19880,
  "Melalui": 11563,
  "Melihat": 10971,
  "Mem": 3162,
  "Memahami": 38312,
  "Memakai": 44059,
  "Memang": 6950,
  "Memasuki": 24348,
  "Memb": 11354,
  "Membaca": 27874,
  "Membangun": 29605,
  "Membantu": 40889,
  "Membeli": 38441,
  "Member": 21305,
  "Memberikan": 29210,
  "Membuat": 15968,
  "Membuka": 45553,
  "Memilih": 17252,
  "Memiliki": 10751,
  "Memp": 25650,
  "Memper": 23454,
  "Mempunyai": 40032,
  "Memulai": 43330,
  "Men": 1739,
  "Menampilkan": 35896,
  "Menang": 45682,
  "Menanggapi": 21324,
  "Menarik": 39248,
  "Menariknya": 28586,
  "Menc": 11997,
  "Mencari": 18709,
  "Mend": 13083,
  "Mendapat": 46360,
  "Mendapatkan": 18201,
  "Mendengar": 21760,
  "Menemukan": 46952,
  "Mener": 40818,
  "Meng": 3410,
  "Mengambil": 43435,
  "Mengan": 43671,
  "Mengapa": 11000,
  "Mengatasi": 39838,
  "Mengenai": 15497,
  "Mengenal": 37037,
  "Mengetahui": 28951,
  "Mengg": 35954,
  "Menggunakan": 16702,
  "Mengh": 19771,
  "Menghadapi": 50219,
  "Menghasilkan": 49933,
  "Menghilangkan": 50062,
  "Mengingat": 17728,
  "Mengk": 32639,
  "Mengkonsumsi": 41054,
  "Mengobati": 42367,
  "Mengonsumsi": 49435,
  "Mengutip": 36983,
  "Menikmati": 41838,
  "Meningkatkan": 29552,
  "Menj": 20508,
  "Menjadi": 12362,
  "Menjaga": 29611,
  "Menjelang": 26308,
  "Ment": 17657,
  "Menteri": 19006,
  "Menu": 25011,
  "Menulis": 28068,
  "Menurunkan": 45581,
  "Menurut": 2522,
  "Menurutnya": 7845,
  "Meny": 12288,
  "Menyadari": 48376,
  "Menyikapi": 50185,
  "Mer": 4733,
  "Merah": 43991,
  "Merasa": 36187,
  "Merdeka": 41235,
  "Merek": 46742,
  "Mereka": 6310,
  "Merk": 47895,
  "Merupakan": 21310,
  "Mesin": 14365,
  "Mesk": 3858,
  "Meski": 6243,
  "Meskipun": 6099,
  "Met": 13226,
  "Metode": 17129,
  "Mi": 28468,
  "Mic": 24145,
  "Microsoft": 37654,
  "Mil": 34962,
  "Mimpi": 32400,
  "Min": 10403,
  "Minggu": 22189,
  "Minimal": 42511,
  "Minum": 38570,
  "Minuman": 37517,
  "Minyak": 20494,
  "Mir": 44020,
  "Mis": 27655,
  "Misal": 40369,
  "Misalkan": 39801,
  "Misalnya": 11513,
  "Misi": 31787,
  "Mitos": 46100,
  "Mitra": 40828,
  "Mo": 21930,
  "Mobil": 15615,
  "Mobile": 45800,
  "Mod": 10090,
  "Modal": 36666,
  "Model": 14220,
  "Moh": 49054,
  "Mohon": 19108,
  "Momen": 40753,
  "Mon": 30191,
  "Money": 44304,
  "Mor": 44131,
  "Motif": 44840,
  "Motivasi": 42742,
  "Motor": 25324,
  "Mr": 36068,
  "Mu": 8495,
  "Mudah": 16318,
  "Muh": 18482,
  "Muhammad": 25282,
  "Muk": 40857,
  "Mul": 25652,
  "Mulai": 14622,
  "Mulailah": 37436,
  "Mun": 37603,
  "Muncul": 31040,
  "Munculnya": 38782,
  "Mungkin": 5068,
  "Mur": 29360,
  "Mus": 11478,
  "Museum": 32189,
  "Musik": 33398,
  "Musim": 25997,
  "Muslim": 27769,
  "Must": 37322,
  "Mut": 49136,
  "My": 25639,
  "N": 50,
  "NA": 9755,
  "NAH": 46300,
  "NAS": 26173,
  "NB": 22408,
  "NC": 11762,
  "ND": 22324,
  "NE": 6241,
  "NES": 42157,
  "NET": 18245,
  "NEWS": 20002,
  "NG": 11854,
  "NI": 2042,
  "NIK": 30753,
  "NING": 29996,
  "NIS": 21455,
  "NK": 20938,
  "NKRI": 47702,
  "NL": 12922,
  "NLOAD": 49255,
  "NN": 12376,
  "NO": 16791,
  "NP": 17305,
  "NPOST": 44726,
  "NS": 3327,
  "NT": 26139,
  "NTB": 43873,
  "NTT": 44441,
  "NU": 13762,
  "NY": 40612,
  "NYA": 16336,
  "Na": 32757,
  "Nabi": 26001,
  "Nah": 2950,
  "Nak": 40352,
  "Nama": 9987,
  "Namanya": 26545,
  "Nampaknya": 50009,
  "Namun": 2400,
  "Nanti": 24959,
  "Nantinya": 29823,
  "Nas": 24157,
  "Nasi": 36609,
  "Ne": 40121,
  "Negara": 20291,
  "Negeri": 49512,
  "Net": 16879,
  "New": 23934,
  "News": 17989,
  "Next": 47209,
  "Ng": 12350,
  "Nggak": 18505,
  "Ngomong": 41149,
  "Ni": 41656,
  "Niat": 49340,
  "Nikmati": 27302,
  "Nilai": 20028,
  "Nisa": 40941,
  "No": 21224,
  "Nokia": 46737,
  "Nomor": 31848,
  "Nonton": 41563,
  "Not": 43699,
  "Note": 30801,
  "Nov": 35433,
  "Novel": 36581,
  "Nur": 25036,
  "Ny": 24967,
  "Nya": 2427,
  "Nyeri": 45048,
  "O": 51,
  "OAD": 40062,
  "OB": 6215,
  "OBAT": 28414,
  "OBET": 11205,
  "OC": 9740,
  "OCK": 40628,
  "OD": 8000,
  "ODE": 21249,
  "ODETABEK": 49508,
  "ODUK": 35307,
  "OG": 7881,
  "OGEL": 38800,
  "OGOR": 42891,
  "OH": 12665,
  "OHC": 28999,
  "OID": 50034,
  "OJK": 36632,
  "OK": 6496,
  "OKER": 14796,
  "OKU": 45819,
  "OL": 4981,
  "OLA": 20135,
  "OLD": 28602,
  "OLED": 36309,
  "OLL": 43206,
  "OLOG": 32909,
  "OLOGI": 36726,
  "OM": 2859,
  "OMB": 47557,
  "OME": 45151,
  "OMO": 29143,
  "ON": 3575,
  "ONA": 48437,
  "ONAL": 31027,
  "OND": 41998,
  "ONE": 23220,
  "ONESI": 13937,
  "ONESIA": 14195,
  "ONG": 15675,
  "ONGAN": 45688,
  "ONLINE": 42452,
  "ONT": 26009,
  "OO": 33773,
  "OP": 6267,
  "OPD": 39495,
  "OR": 4399,
  "ORA": 31540,
  "ORAN": 42653,
  "ORD": 47986,
  "ORE": 21666,
  "ORI": 38635,
  "ORLD": 43511,
  "ORT": 33494,
  "OS": 3731,
  "OSI": 40620,
  "OSS": 30115,
  "OST": 21323,
  "OT": 6957,
  "OTA": 49826,
  "OTO": 27080,
  "OV": 16097,
  "OVE": 48777,
  "OW": 12141,
  "OWER": 42822,
  "OX": 44743,
  "Ob": 18526,
  "Obat": 5677,
  "Objek": 36109,
  "Obyek": 48553,
  "Off": 31584,
  "Office": 46663,
  "Oh": 11325,
  "Oiya": 46619,
  "Ok": 16062,
  "Oke": 14822,
  "Ol": 5717,
  "Olahraga": 21040,
  "Oleh": 6027,
  "Om": 29824,
  "On": 14801,
  "One": 21835,
  "Online": 26192,
  "Op": 16637,
  "Open": 40586,
  "Oper": 49218,
  "Operasi": 30916,
  "Opsi": 49562,
  "Option": 39766,
  "Or": 13638,
  "Orang": 6559,
  "Orangtua": 48761,
  "Organ": 25188,
  "Organisasi": 29797,
  "Os": 44396,
  "Ot": 34065,
  "Otak": 48274,
  "Out": 31982,
  "Over": 30175,
  "Oya": 44209,
  "P": 52,
  "PA": 4143,
  "PAD": 27051,
  "PAI": 27559,
  "PAN": 21012,
  "PAS": 18058,
  "PASI": 28327,
  "PAT": 41883,
  "PAUD": 44756,
  "PB": 4723,
  "PBB": 36151,
  "PBD": 30609,
  "PBN": 38440,
  "PBU": 19456,
  "PC": 16513,
  "PD": 8392,
  "PDG": 43531,
  "PE": 23540,
  "PEK": 30684,
  "PEKANBARU": 45241,
  "PEL": 47591,
  "PEM": 33427,
  "PEMKAB": 46850,
  "PEN": 26600,
  "PENG": 43902,
  "PER": 13514,
  "PERCAYA": 31836,
  "PG": 10597,
  "PH": 16897,
  "PI": 4920,
  "PIN": 49941,
  "PJ": 45761,
  "PK": 2838,
  "PKB": 36366,
  "PKES": 37475,
  "PKI": 30104,
  "PKP": 49777,
  "PKS": 27537,
  "PKU": 36915,
  "PL": 10668,
  "PLN": 48077,
  "PM": 7216,
  "PMK": 42215,
  "PMS": 40359,
  "PN": 8055,
  "PNS": 6086,
  "PO": 14489,
  "POKER": 38883,
  "POL": 35160,
  "PON": 40949,
  "POS": 31915,
  "PP": 3831,
  "PPI": 30362,
  "PPK": 34669,
  "PPO": 20820,
  "PPP": 46124,
  "PPS": 49753,
  "PR": 5031,
  "PRI": 47542,
  "PRO": 31536,
  "PRS": 37114,
  "PS": 3249,
  "PSI": 38707,
  "PT": 3560,
  "PTI": 43927,
  "PTK": 21264,
  "PTN": 11802,
  "PU": 2939,
  "PUBL": 27707,
  "PUBLIK": 47163,
  "PUBLIKA": 38911,
  "PUH": 39025,
  "PULAN": 46594,
  "PUPR": 40276,
  "PURA": 40783,
  "PV": 46918,
  "Pa": 24114,
  "Pabrik": 35552,
  "Pad": 27951,
  "Pada": 1916,
  "Padahal": 11596,
  "Pagi": 19072,
  "Pak": 13854,
  "Pakaian": 41609,
  "Pakar": 44438,
  "Paket": 15581,
  "Pal": 16314,
  "Palembang": 38761,
  "Paling": 27954,
  "Pam": 33753,
  "Pameran": 42828,
  "Pan": 15902,
  "Panc": 47191,
  "Pandangan": 39670,
  "Panduan": 25847,
  "Panel": 38377,
  "Pang": 28834,
  "Pangeran": 48257,
  "Panglima": 47082,
  "Panitia": 37331,
  "Panjang": 49297,
  "Pantai": 14694,
  "Pantauan": 36542,
  "Pap": 40506,
  "Papan": 33043,
  "Par": 21359,
  "Para": 5790,
  "Park": 40996,
  "Part": 39617,
  "Partai": 30867,
  "Pas": 5875,
  "Pasal": 24384,
  "Pasalnya": 18160,
  "Pasang": 48970,
  "Pasangan": 25923,
  "Pasar": 21288,
  "Pasca": 39130,
  "Pasi": 35463,
  "Pasien": 46318,
  "Pasti": 22553,
  "Pastikan": 13957,
  "Pastinya": 26236,
  "Pasukan": 47022,
  "Pat": 24183,
  "Pay": 14361,
  "Pd": 12366,
  "Pe": 40595,
  "Pejabat": 44034,
  "Pekan": 34721,
  "Pekerjaan": 26403,
  "Pel": 6184,
  "Pelajaran": 42827,
  "Pelaksanaan": 29632,
  "Pelaku": 30467,
  "Pelanggan": 39411,
  "Pelatih": 21394,
  "Pelatihan": 24000,
  "Pelayanan": 26019,
  "Peluang": 24742,
  "Pem": 3666,
  "Pemahaman": 45412,
  "Pemain": 14612,
  "Pemakaian": 37941,
  "Peman": 36749,
  "Pemandangan": 38868,
  "Pemanfaatan": 46795,
  "Pemasangan": 44490,
  "Pemb": 7912,
  "Pembagian": 46260,
  "Pembahasan": 37183,
  "Pembangunan": 22179,
  "Pembayaran": 34439,
  "Pembelajaran": 45881,
  "Pembeli": 42198,
  "Pember": 21531,
  "Pemberian": 30470,
  "Pembuatan": 29513,
  "Pembukaan": 41191,
  "Pemenang": 40431,
  "Pemer": 30133,
  "Pemeriksaan": 32821,
  "Pemerintah": 10991,
  "Pemesanan": 39178,
  "Pemilihan": 22448,
  "Pemilik": 26874,
  "Pemilu": 43175,
  "Pemimpin": 30668,
  "Pemkab": 35887,
  "Pemkot": 38486,
  "Pemprov": 32878,
  "Pemuda": 32214,
  "Pen": 3939,
  "Pena": 38748,
  "Penampilan": 30303,
  "Penanganan": 47582,
  "Penangkapan": 46187,
  "Penasaran": 38956,
  "Penc": 18847,
  "Pend": 13770,
  "Pendaftaran": 21861,
  "Pendapat": 25798,
  "Pendekatan": 37485,
  "Penderita": 33882,
  "Pendidikan": 18406,
  "Penduduk": 44483,
  "Peneliti": 37593,
  "Penelitian": 13746,
  "Penemuan": 41468,
  "Pener": 24897,
  "Penerapan": 42964,
  "Penerimaan": 49002,
  "Penetapan": 46147,
  "Peng": 3426,
  "Pengalaman": 19570,
  "Pengaruh": 33724,
  "Pengaturan": 46549,
  "Pengel": 36174,
  "Pengelolaan": 45633,
  "Pengembangan": 31328,
  "Pengertian": 14712,
  "Pengetahuan": 38133,
  "Pengg": 28495,
  "Pengguna": 23666,
  "Penggunaan": 14997,
  "Pengh": 40325,
  "Penghargaan": 29906,
  "Pengiriman": 36998,
  "Pengobatan": 17594,
  "Pengumuman": 28342,
  "Pengunjung": 34380,
  "Pengusaha": 50096,
  "Penilaian": 44954,
  "Peningkatan": 29437,
  "Penj": 18491,
  "Penjelasan": 29570,
  "Penjual": 35052,
  "Penjualan": 43253,
  "Penting": 20001,
  "Pentingnya": 41474,
  "Penulis": 21010,
  "Penurunan": 36928,
  "Peny": 7679,
  "Penyakit": 10289,
  "Penyanyi": 45959,
  "Penyebab": 13265,
  "Penyelengg": 44128,
  "Per": 1523,
  "Peralatan": 45424,
  "Peran": 26956,
  "Perang": 37462,
  "Perangkat": 25261,
  "Perasaan": 37866,
  "Peraturan": 26888,
  "Perawatan": 28305,
  "Perb": 14325,
  "Perbedaan": 19336,
  "Perbuatan": 50237,
  "Perc": 33214,
  "Percaya": 33893,
  "Perd": 49739,
  "Perempuan": 23840,
  "Perencanaan": 50243,
  "Performa": 45503,
  "Perg": 31903,
  "Pergi": 36032,
  "Perhatian": 40337,
  "Perhatikan": 20365,
  "Peri": 39884,
  "Periksa": 43951,
  "Perilaku": 42174,
  "Peringatan": 35253,
  "Periode": 46683,
  "Peristiwa": 22780,
  "Perj": 30603,
  "Perjalanan": 14109,
  "Perjanjian": 47923,
  "Perjuangan": 35354,
  "Perjudian": 45462,
  "Perk": 11853,
  "Perkembangan": 16425,
  "Perkenalkan": 48640,
  "Perl": 41817,
  "Perlahan": 47102,
  "Perlu": 9613,
  "Perm": 28363,
  "Permainan": 9306,
  "Permasalahan": 29461,
  "Permintaan": 47242,
  "Pern": 8961,
  "Pernah": 11821,
  "Pernahkah": 20193,
  "Pernikahan": 34860,
  "Pernyataan": 24129,
  "Perp": 30378,
  "Pers": 14337,
  "Persaingan": 39015,
  "Persero": 13053,
  "Persiapan": 36087,
  "Persoalan": 31533,
  "Persyaratan": 38920,
  "Pert": 8146,
  "Pertama": 7853,
  "Pertandingan": 20329,
  "Pertanya": 33169,
  "Pertanyaan": 16236,
  "Pertanyaannya": 34650,
  "Pertemuan": 21101,
  "Pertimb": 38211,
  "Pertumbuhan": 29619,
  "Perubahan": 20419,
  "Perusahaan": 12295,
  "Perwakilan": 49692,
  "Pes": 22036,
  "Pesan": 22636,
  "Pesawat": 34261,
  "Peserta": 18210,
  "Pesona": 45284,
  "Pesta": 48198,
  "Pet": 21927,
  "Peta": 49917,
  "Petugas": 26897,
  "Ph": 32590,
  "Phone": 33396,
  "Pi": 24826,
  "Piala": 39027,
  "Pihak": 14676,
  "Pihaknya": 25184,
  "Pikiran": 44223,
  "Pil": 18230,
  "Pilih": 15539,
  "Pilihan": 19593,
  "Pilihlah": 30162,
  "Pilkada": 36072,
  "Pimpinan": 46610,
  "Pintu": 40387,
  "Pis": 45427,
  "Pl": 24750,
  "Plan": 41267,
  "Play": 30147,
  "Plt": 39560,
  "Plus": 23602,
  "Po": 22182,
  "Pohon": 33016,
  "Poin": 28596,
  "Point": 27892,
  "Poker": 11403,
  "Pokoknya": 41951,
  "Pol": 10042,
  "Pola": 26218,
  "Polisi": 26202,
  "Polit": 34901,
  "Politik": 41488,
  "Politisi": 44807,
  "Polres": 43516,
  "Polri": 25475,
  "Ponsel": 31572,
  "Pop": 28664,
  "Popul": 42106,
  "Por": 35622,
  "Portal": 40844,
  "Pos": 17497,
  "Posisi": 21792,
  "Post": 28835,
  "Posted": 46502,
  "Postingan": 39750,
  "Potensi": 33421,
  "Power": 32781,
  "Pr": 4849,
  "Prabowo": 45743,
  "Prediksi": 11249,
  "Pres": 36820,
  "Presiden": 14312,
  "Press": 11087,
  "Prestasi": 36438,
  "Pri": 29947,
  "Pria": 13448,
  "Prinsip": 25290,
  "Pro": 4139,
  "Produk": 5510,
  "Produksi": 39428,
  "Produsen": 34207,
  "Prof": 20775,
  "Profil": 46328,
  "Program": 10010,
  "Promo": 21627,
  "Promosi": 45434,
  "Prop": 49055,
  "Prosedur": 43264,
  "Proses": 10163,
  "Provinsi": 38004,
  "Proyek": 24657,
  "Psik": 41757,
  "Pu": 43201,
  "Puasa": 44186,
  "Puji": 48168,
  "Pukul": 36063,
  "Pulau": 17510,
  "Pulsa": 44586,
  "Puluhan": 47299,
  "Pun": 39529,
  "Puncak": 40269,
  "Punya": 30461,
  "Pur": 33555,
  "Purn": 39652,
  "Pus": 32078,
  "Pusat": 23496,
  "Putih": 37622,
  "Putra": 43046,
  "Putri": 34939,
  "Q": 53,
  "QL": 17226,
  "QQ": 9696,
  "QS": 12292,
  "QU": 35804,
  "Qa": 44774,
  "Qiu": 39208,
  "QnC": 33884,
  "Qs": 45244,
  "Qu": 24429,
  "Query": 49545,
  "Qur": 6715,
  "Quran": 9940,
  "R": 54,
  "RA": 8135,
  "RADAR": 47997,
  "RAK": 38057,
  "RAM": 26242,
  "RB": 19685,
  "RC": 16283,
  "RD": 32381,
  "RE": 11106,
  "REAM": 40415,
  "REE": 35186,
  "REPUBLIKA": 40707,
  "RES": 48353,
  "RI": 2490,
  "RIA": 22624,
  "RIM": 35419,
  "RING": 45614,
  "RIS": 32469,
  "RL": 10692,
  "RM": 36671,
  "RO": 16984,
  "ROM": 45601,
  "RP": 17619,
  "RPP": 49958,
  "RR": 25606,
  "RS": 13781,
  "RT": 8394,
  "RU": 27123,
  "RW": 20027,
  "Ra": 30709,
  "Rabu": 37231,
  "Radio": 48533,
  "Rah": 19326,
  "Rahasia": 34414,
  "Raja": 23663,
  "Rak": 22490,
  "Rakyat": 41461,
  "Ram": 18224,
  "Ramalan": 35524,
  "Rambut": 30657,
  "Ramuan": 39944,
  "Ran": 44496,
  "Rangkaian": 36639,
  "Rapat": 30440,
  "Rasa": 17282,
  "Rasanya": 24667,
  "Rasul": 21352,
  "Rasulullah": 23981,
  "Rat": 33708,
  "Rata": 31872,
  "Ratu": 47259,
  "Ratusan": 42965,
  "Ray": 31992,
  "Re": 24707,
  "Read": 13798,
  "Reaksi": 46319,
  "Real": 26082,
  "Rec": 46242,
  "Red": 20658,
  "Reg": 30462,
  "Rek": 21083,
  "Rekomendasi": 37609,
  "Rektor": 44503,
  "Rem": 31739,
  "Remaja": 46178,
  "Ren": 49607,
  "Rencana": 24887,
  "Rencananya": 30063,
  "Rent": 49336,
  "Rental": 37989,
  "Rep": 26055,
  "Res": 9311,
  "Resep": 14193,
  "Restoran": 36849,
  "Review": 24572,
  "Ri": 26150,
  "Riau": 43758,
  "Ribuan": 48899,
  "Rid": 44135,
  "Ring": 41131,
  "Riset": 44011,
  "Risiko": 49192,
  "Riwayat": 39115,
  "Riz": 41574,
  "Ro": 34390,
  "Rob": 38348,
  "Robot": 46538,
  "Roh": 37348,
  "Rom": 44930,
  "Roma": 37882,
  "Rombongan": 49703,
  "Ronaldo": 47283,
  "Ros": 36080,
  "Roy": 47513,
  "Rp": 16443,
  "Ruang": 25457,
  "Ruangan": 45021,
  "Rumah": 11061,
  "Rup": 26229,
  "Rupanya": 28784,
  "Rus": 43409,
  "Rusia": 38692,
  "Rute": 47404,
  "S": 55,
  "SA": 10094,
  "SB": 15783,
  "SBY": 41976,
  "SC": 18644,
  "SD": 5802,
  "SDA": 36852,
  "SDM": 16205,
  "SDPA": 37542,
  "SE": 17284,
  "SEA": 44958,
  "SEL": 27923,
  "SEM": 29533,
  "SEMARANG": 41680,
  "SEND": 48958,
  "SEO": 36868,
  "SER": 33647,
  "SES": 38576,
  "SET": 47392,
  "SH": 17763,
  "SI": 1882,
  "SIA": 27788,
  "SID": 49496,
  "SIM": 24895,
  "SIN": 32661,
  "SING": 46327,
  "SIP": 23292,
  "SIS": 8960,
  "SK": 15684,
  "SL": 10085,
  "SM": 4542,
  "SMA": 21611,
  "SMK": 16415,
  "SMP": 28044,
  "SMS": 23304,
  "SN": 22871,
  "SO": 26417,
  "SP": 9731,
  "SPP": 49907,
  "SQL": 23340,
  "SR": 18823,
  "SRG": 33880,
  "SS": 20735,
  "ST": 12128,
  "SU": 17410,
  "SUB": 34940,
  "SUL": 45772,
  "SUR": 29441,
  "SURABAYA": 41489,
  "SW": 37799,
  "SZ": 37147,
  "SZB": 47219,
  "Sa": 26298,
  "Saat": 2781,
  "Saatnya": 49000,
  "Sab": 21340,
  "Sabtu": 29407,
  "Sadar": 47667,
  "Sahabat": 20469,
  "Saham": 43202,
  "Sak": 49185,
  "Saking": 39746,
  "Sakit": 27668,
  "Sal": 23797,
  "Salah": 3411,
  "Salam": 20899,
  "Sam": 16689,
  "Sama": 11651,
  "Sambil": 23656,
  "Samp": 44549,
  "Sampai": 9320,
  "Samsung": 23471,
  "San": 41481,
  "Sand": 27641,
  "Sandi": 25514,
  "Sandiaga": 36649,
  "Sang": 16992,
  "Sangat": 12413,
  "Sar": 26006,
  "Saran": 29635,
  "Sasaran": 47210,
  "Sat": 26250,
  "Satu": 7233,
  "Saud": 46289,
  "Saudara": 32220,
  "Say": 27339,
  "Saya": 1950,
  "Sayang": 24916,
  "Sayangnya": 12378,
  "Sbobet": 46642,
  "Sc": 12431,
  "Sch": 49087,
  "Score": 39990,
  "Script": 31060,
  "Se": 2433,
  "Seandainya": 23195,
  "Search": 41153,
  "Seb": 1504,
  "Sebab": 12988,
  "Sebagai": 3821,
  "Sebagaimana": 13466,
  "Sebagian": 8117,
  "Sebaik": 47741,
  "Sebaiknya": 19256,
  "Sebaliknya": 20013,
  "Sebanyak": 25569,
  "Sebelum": 3635,
  "Sebelumnya": 6380,
  "Sebenarnya": 6444,
  "Sebenernya": 40029,
  "Seberapa": 42360,
  "Sebetulnya": 25862,
  "Sebuah": 7159,
  "Sebut": 39565,
  "Sec": 31092,
  "Secara": 6675,
  "Sed": 5083,
  "Sedang": 27432,
  "Sedangkan": 6292,
  "Sedikit": 21431,
  "Seg": 43586,
  "Segala": 21968,
  "Segera": 21601,
  "Seh": 7761,
  "Sehari": 42071,
  "Seharusnya": 26991,
  "Sehat": 32351,
  "Sehingga": 11845,
  "Sehubungan": 26760,
  "Seiring": 14762,
  "Sej": 8049,
  "Sejak": 7578,
  "Sejalan": 35511,
  "Sejarah": 18716,
  "Sejatinya": 36735,
  "Sejauh": 18830,
  "Sejujurnya": 41337,
  "Sejumlah": 17902,
  "Sek": 3502,
  "Sekadar": 46730,
  "Sekali": 16681,
  "Sekalipun": 40152,
  "Sekarang": 6513,
  "Sekda": 42664,
  "Sekedar": 25525,
  "Sekian": 14747,
  "Sekilas": 33979,
  "Sekiranya": 38943,
  "Sekitar": 18705,
  "Sekolah": 21282,
  "Sekretaris": 25148,
  "Sektor": 46425,
  "Sel": 1219,
  "Selain": 1856,
  "Selalu": 20677,
  "Selama": 7138,
  "Selamat": 9077,
  "Selang": 45498,
  "Selanjutnya": 6687,
  "Selasa": 37224,
  "Seleksi": 49771,
  "Selengkapnya": 4345,
  "Selepas": 38109,
  "Selesai": 24206,
  "Seluruh": 18864,
  "Sem": 1995,
  "Semakin": 13976,
  "Semangat": 31806,
  "Semarang": 35102,
  "Semb": 44957,
  "Semen": 28036,
  "Semenjak": 32045,
  "Sementara": 3489,
  "Seminar": 35834,
  "Semoga": 6714,
  "Sempat": 32423,
  "Semua": 5898,
  "Semuanya": 25414,
  "Sen": 15906,
  "Senada": 29456,
  "Senang": 35633,
  "Seni": 36954,
  "Senin": 34337,
  "Sense": 26081,
  "Seorang": 7686,
  "Sep": 9328,
  "Sepak": 37948,
  "Sepanjang": 24870,
  "Sepatu": 20064,
  "Sepeda": 42481,
  "Seperti": 3909,
  "Sepertinya": 20454,
  "September": 50205,
  "Sepuluh": 48281,
  "Ser": 9209,
  "Serangan": 34905,
  "Seri": 25820,
  "Sering": 18364,
  "Seringkali": 20812,
  "Serta": 32129,
  "Ses": 6588,
  "Sesaat": 43441,
  "Sesampainya": 32956,
  "Seseorang": 19023,
  "Sesi": 36650,
  "Sesuai": 12633,
  "Sesuatu": 37848,
  "Sesudah": 26092,
  "Sesungguhnya": 10420,
  "Set": 4681,
  "Setahun": 47543,
  "Setelah": 2087,
  "Setiap": 5571,
  "Setidaknya": 23380,
  "Setuju": 46705,
  "Sewa": 32408,
  "Sewaktu": 36896,
  "Sh": 9610,
  "Shar": 44723,
  "Share": 39563,
  "Shop": 33743,
  "Si": 5036,
  "Siang": 34183,
  "Siap": 19981,
  "Siapa": 8299,
  "Siapakah": 34081,
  "Siapapun": 34876,
  "Siapkan": 31767,
  "Sidang": 43749,
  "Sifat": 29978,
  "Sikap": 26529,
  "Sil": 11489,
  "Silahkan": 15790,
  "Silakan": 28133,
  "Sim": 37223,
  "Simp": 42343,
  "Sin": 19404,
  "Sinar": 48799,
  "Sing": 27922,
  "Singkat": 31032,
  "Singkatnya": 44334,
  "Sinopsis": 26582,
  "Sip": 38725,
  "Sir": 39445,
  "Sis": 37651,
  "Sisi": 39008,
  "Sistem": 11559,
  "Siswa": 27670,
  "Situasi": 31674,
  "Situs": 9161,
  "Sk": 23883,
  "Sky": 44796,
  "Sl": 43389,
  "Sm": 49845,
  "Smart": 32279,
  "Smartphone": 22416,
  "Sn": 43013,
  "So": 7816,
  "Soal": 16827,
  "Soalnya": 45188,
  "Sobat": 27061,
  "Sofa": 30584,
  "Software": 30508,
  "Sol": 30418,
  "Solo": 38413,
  "Solusi": 24375,
  "Sony": 45323,
  "Soo": 46567,
  "Sore": 34776,
  "Sos": 25805,
  "Sosialisasi": 39269,
  "Sosok": 35513,
  "Sp": 11033,
  "Spe": 39797,
  "Spesifikasi": 20922,
  "Sport": 23720,
  "Sports": 40169,
  "Spot": 47192,
  "Sri": 35163,
  "St": 8056,
  "Stadium": 48839,
  "Staf": 36865,
  "Standar": 29686,
  "Star": 26540,
  "Stasiun": 34804,
  "Station": 31290,
  "Status": 41558,
  "Step": 49727,
  "Stop": 45872,
  "Store": 28560,
  "Str": 13278,
  "Strategi": 22502,
  "Struktur": 43866,
  "Studi": 21882,
  "Su": 7106,
  "Suami": 30126,
  "Suara": 23053,
  "Suasana": 26163,
  "Suatu": 11803,
  "Sub": 22605,
  "Subhan": 45659,
  "Sudah": 6582,
  "Suh": 46074,
  "Suhu": 50164,
  "Suk": 36089,
  "Suka": 35164,
  "Sukses": 36628,
  "Suku": 42289,
  "Sul": 29073,
  "Sulit": 35764,
  "Sum": 21910,
  "Sumatera": 42201,
  "Sumber": 16641,
  "Sun": 17879,
  "Sungai": 44973,
  "Sungguh": 17754,
  "Sunnah": 31447,
  "Sup": 23641,
  "Supaya": 23535,
  "Super": 27393,
  "Sur": 19369,
  "Surabaya": 25034,
  "Surah": 48381,
  "Surat": 16525,
  "Survei": 41397,
  "Sus": 41284,
  "Susu": 33538,
  "Suzuki": 45379,
  "Sw": 32798,
  "Sy": 18915,
  "Sya": 18343,
  "Syafi": 48995,
  "Syah": 42640,
  "Syaikh": 30612,
  "Syar": 48900,
  "Syarat": 26619,
  "Syn": 47569,
  "Syukur": 41929,
  "T": 56,
  "TA": 3176,
  "TABEK": 47537,
  "TAN": 20872,
  "TAP": 44359,
  "TAR": 48177,
  "TAS": 23291,
  "TASI": 31977,
  "TB": 16131,
  "TC": 9786,
  "TD": 33863,
  "TE": 7507,
  "TEK": 45071,
  "TEL": 37639,
  "TEM": 32347,
  "TEMPO": 41700,
  "TER": 12238,
  "TF": 43209,
  "TG": 24380,
  "TH": 25100,
  "TI": 3724,
  "TIAN": 19520,
  "TIF": 28942,
  "TIK": 16670,
  "TIKA": 48742,
  "TIKI": 42110,
  "TIL": 45726,
  "TIM": 26654,
  "TING": 36785,
  "TION": 35689,
  "TIS": 40135,
  "TK": 21638,
  "TKG": 49017,
  "TKI": 33678,
  "TL": 30516,
  "TM": 4956,
  "TML": 13609,
  "TN": 30169,
  "TNI": 29556,
  "TO": 15150,
  "TOP": 47290,
  "TOR": 38395,
  "TP": 5101,
  "TPA": 50017,
  "TPS": 40884,
  "TR": 9807,
  "TRA": 31301,
  "TRAK": 37406,
  "TRI": 15688,
  "TRIB": 19175,
  "TRIBUN": 21731,
  "TRIBUNNEWS": 44514,
  "TS": 7573,
  "TSP": 27425,
  "TT": 13431,
  "TTPS": 47559,
  "TU": 17508,
  "TUK": 23465,
  "TV": 7052,
  "TW": 42296,
  "TY": 27499,
  "Ta": 22084,
  "Tab": 35203,
  "Tabel": 35705,
  "Tadi": 27180,
  "Tafsir": 40830,
  "Tag": 20708,
  "Tags": 36864,
  "Tah": 13424,
  "Tahap": 21721,
  "Tahapan": 39086,
  "Tahu": 38835,
  "Tahukah": 16247,
  "Tahun": 9332,
  "Tak": 4930,
  "Talk": 49288,
  "Taman": 22279,
  "Tambah": 43695,
  "Tambahan": 47989,
  "Tambahkan": 37873,
  "Tampak": 42495,
  "Tampaknya": 38148,
  "Tampil": 39885,
  "Tampilan": 32040,
  "Tan": 13501,
  "Tanah": 31810,
  "Tanaman": 20047,
  "Tanda": 23559,
  "Tangan": 37359,
  "Tanggal": 22918,
  "Tanjung": 46878,
  "Tanpa": 14990,
  "Tantangan": 32523,
  "Tanya": 47554,
  "Tapi": 4204,
  "Tar": 48020,
  "Target": 27590,
  "Tari": 43050,
  "Tarif": 41012,
  "Taruhan": 22597,
  "Tas": 20074,
  "Tat": 48360,
  "Tata": 34309,
  "Tau": 31846,
  "Te": 21041,
  "Team": 44472,
  "Tebakan": 42438,
  "Tech": 39645,
  "Teh": 30088,
  "Tek": 33677,
  "Tekanan": 42032,
  "Teknik": 18363,
  "Teknologi": 18998,
  "Tekstur": 45541,
  "Tel": 19199,
  "Telah": 18816,
  "Telkom": 42285,
  "Telur": 43465,
  "Tem": 47881,
  "Tema": 27143,
  "Teman": 19329,
  "Temp": 37945,
  "Tempat": 9331,
  "Temuan": 41364,
  "Temukan": 35325,
  "Tenaga": 42752,
  "Tenang": 37665,
  "Tenda": 46427,
  "Tentang": 24357,
  "Tentu": 8596,
  "Tentukan": 49608,
  "Tentunya": 7496,
  "Teori": 27301,
  "Tepat": 21780,
  "Ter": 2653,
  "Terakhir": 16417,
  "Terapi": 35336,
  "Terb": 24223,
  "Terbukti": 43784,
  "Terc": 40134,
  "Tercatat": 45480,
  "Terdapat": 14720,
  "Tergantung": 45250,
  "Terima": 10690,
  "Terimakasih": 18142,
  "Terj": 33376,
  "Terjadi": 48963,
  "Terkadang": 16108,
  "Terkait": 12310,
  "Terl": 12245,
  "Terlalu": 30925,
  "Terlebih": 24389,
  "Terlepas": 19527,
  "Terletak": 27017,
  "Terlihat": 30255,
  "Termasuk": 28075,
  "Tern": 9686,
  "Ternyata": 9856,
  "Terp": 25259,
  "Terpisah": 34702,
  "Ters": 17482,
  "Tersangka": 38036,
  "Tersedia": 33532,
  "Tertarik": 44903,
  "Terus": 19818,
  "Terutama": 33646,
  "Tes": 25399,
  "Tetap": 30786,
  "Tetapi": 7390,
  "Th": 14272,
  "The": 8016,
  "This": 41224,
  "Ti": 13913,
  "Tiada": 49577,
  "Tiap": 28034,
  "Tiba": 20081,
  "Tidak": 2890,
  "Tidaklah": 42188,
  "Tidur": 33734,
  "Tiga": 16541,
  "Tiket": 33055,
  "Tim": 9869,
  "Time": 39278,
  "Timnas": 39479,
  "Tindakan": 32507,
  "Tinggal": 24743,
  "Tingginya": 43171,
  "Tingkat": 26151,
  "Tip": 40281,
  "Tipe": 29129,
  "Tips": 9087,
  "Tirmidzi": 45481,
  "Titik": 45291,
  "To": 31409,
  "Togel": 34837,
  "Tok": 34981,
  "Toko": 16150,
  "Tokoh": 31334,
  "Tolong": 35918,
  "Tom": 47592,
  "Top": 20096,
  "Topik": 42668,
  "Tor": 43923,
  "Total": 25119,
  "Toyota": 36277,
  "Tr": 7796,
  "Trader": 34514,
  "Trading": 30371,
  "Tradisi": 41076,
  "Trans": 18532,
  "Transaksi": 45365,
  "Travel": 27592,
  "Tren": 25699,
  "Trend": 49709,
  "Tri": 38167,
  "Trib": 48171,
  "Trik": 24319,
  "Trip": 48754,
  "Tu": 14354,
  "Tuan": 33138,
  "Tubuh": 25966,
  "Tugas": 22711,
  "Tuhan": 15075,
  "Tujuan": 9863,
  "Tujuannya": 32334,
  "Tujuh": 48385,
  "Tulis": 44665,
  "Tulisan": 20920,
  "Tumbuhan": 49341,
  "Tunggu": 25819,
  "Tur": 31062,
  "Turn": 44140,
  "Turut": 44066,
  "Tutorial": 33429,
  "U": 57,
  "UA": 14368,
  "UAL": 47614,
  "UAN": 7526,
  "UAR": 47300,
  "UB": 9801,
  "UC": 48656,
  "UD": 6023,
  "UDA": 46883,
  "UDAH": 33716,
  "UE": 31126,
  "UG": 46402,
  "UGM": 43832,
  "UH": 6034,
  "UHAN": 10274,
  "UI": 6932,
  "UIN": 48872,
  "UK": 6770,
  "UKA": 44795,
  "UKAN": 24031,
  "UKI": 46988,
  "UKM": 29858,
  "UKU": 38048,
  "UKUM": 42596,
  "UL": 5085,
  "ULL": 46757,
  "ULU": 40792,
  "UM": 4083,
  "UMEN": 43475,
  "UMI": 49913,
  "UMKM": 35098,
  "UN": 4446,
  "UNA": 38290,
  "UND": 39225,
  "UNG": 10999,
  "UNGAN": 39490,
  "UNI": 20128,
  "UNIA": 36623,
  "UNJ": 50200,
  "UNS": 46600,
  "UNT": 46500,
  "UP": 8120,
  "UPATEN": 44462,
  "UPER": 31914,
  "UPG": 48617,
  "UR": 4669,
  "URA": 41429,
  "URAH": 23749,
  "URAN": 31081,
  "URE": 40244,
  "URES": 40427,
  "URU": 47460,
  "US": 4064,
  "USA": 43157,
  "USAHA": 45087,
  "USAN": 45784,
  "USB": 34819,
  "USD": 18618,
  "USI": 41908,
  "UST": 38213,
  "UT": 6280,
  "UTUP": 47012,
  "UU": 13183,
  "Uang": 24806,
  "Uc": 37888,
  "Ucapan": 43725,
  "Udah": 32307,
  "Udang": 43841,
  "Udara": 49174,
  "Uji": 41586,
  "Ujian": 36901,
  "Uk": 21830,
  "Ukuran": 23920,
  "Ul": 23760,
  "Ulama": 46454,
  "Ulasan": 40916,
  "Um": 13689,
  "Umar": 33806,
  "Umat": 48706,
  "Umumnya": 17469,
  "Umur": 49533,
  "Un": 1202,
  "Undang": 8869,
  "Undangan": 44068,
  "Ungk": 43579,
  "Uni": 35722,
  "Unik": 42676,
  "Uniknya": 35540,
  "Unit": 38269,
  "Univers": 22265,
  "Universitas": 22375,
  "Unsur": 46102,
  "Untuk": 1320,
  "Untung": 20540,
  "Untungnya": 28001,
  "Up": 12112,
  "Upacara": 35936,
  "Upaya": 24651,
  "Update": 34816,
  "Ur": 26645,
  "Us": 9357,
  "Usaha": 19603,
  "Usahakan": 32676,
  "Usai": 17407,
  "Usia": 28841,
  "Ust": 38318,
  "Ustadz": 48997,
  "Uts": 48713,
  "V": 58,
  "VA": 21234,
  "VC": 17340,
  "VD": 11211,
  "VE": 29566,
  "VEL": 45671,
  "VER": 25672,
  "VI": 16570,
  "VIDIA": 46803,
  "VII": 47668,
  "VIVA": 34290,
  "VO": 22614,
  "VOICE": 36676,
  "VR": 26512,
  "VS": 45022,
  "Val": 34782,
  "Van": 49982,
  "Vari": 37311,
  "Ver": 27490,
  "Versi": 35337,
  "Vi": 43816,
  "Video": 17346,
  "View": 33105,
  "Villa": 44675,
  "Vir": 38379,
  "Virus": 32870,
  "Visi": 31260,
  "Vitamin": 33774,
  "Vol": 40391,
  "W": 59,
  "WA": 10974,
  "WAN": 49358,
  "WB": 47531,
  "WD": 34848,
  "WH": 50066,
  "WHO": 39080,
  "WI": 15834,
  "WK": 35962,
  "WM": 48371,
  "WP": 17207,
  "WS": 11314,
  "WW": 46472,
  "Wa": 34154,
  "Wah": 8617,
  "Wahai": 15556,
  "Wahana": 49710,
  "Wahyu": 42530,
  "Wajah": 29863,
  "Wajar": 45773,
  "Wajib": 49731,
  "Wakil": 14407,
  "Waktu": 10244,
  "Wal": 34215,
  "Walau": 16285,
  "Walaupun": 10393,
  "Wali": 31477,
  "Walikota": 29618,
  "Wanita": 13778,
  "War": 33844,
  "Warga": 18599,
  "Warna": 18903,
  "Warta": 48501,
  "Warung": 44699,
  "Was": 32724,
  "Wasir": 26936,
  "Wat": 40848,
  "We": 36704,
  "Web": 16305,
  "Website": 24292,
  "Well": 24427,
  "Wh": 38360,
  "What": 47943,
  "WhatsApp": 41213,
  "Wi": 43306,
  "Wid": 46611,
  "Wil": 43720,
  "Wilayah": 37253,
  "Win": 39231,
  "Windows": 35090,
  "Wir": 47308,
  "Wis": 38968,
  "Wisata": 19621,
  "Won": 43019,
  "Word": 33327,
  "Work": 32390,
  "World": 31462,
  "Wow": 32863,
  "X": 60,
  "XI": 40461,
  "XL": 35235,
  "XP": 49971,
  "XX": 29442,
  "XY": 45256,
  "Xi": 41399,
  "Xiaomi": 32584,
  "Y": 61,
  "YA": 6081,
  "YAK": 36022,
  "YAR": 42498,
  "YAT": 33521,
  "YD": 23541,
  "YI": 32150,
  "YL": 40117,
  "YO": 26586,
  "YP": 44346,
  "YS": 37908,
  "YU": 39813,
  "YY": 36658,
  "Ya": 5242,
  "Yah": 18446,
  "Yaitu": 26990,
  "Yak": 44292,
  "Yakin": 48527,
  "Yakni": 47279,
  "Yamaha": 40405,
  "Yang": 3907,
  "Yap": 38050,
  "Yayasan": 42901,
  "Ye": 42907,
  "Yes": 33370,
  "Yesus": 26451,
  "Yi": 42012,
  "Yo": 24229,
  "Yog": 25381,
  "Yogyakarta": 30265,
  "Yoh": 34483,
  "Yohanes": 32087,
  "You": 32000,
  "Young": 41483,
  "Yuk": 30010,
  "Yup": 28164,
  "Yusuf": 47888,
  "Z": 62,
  "ZA": 31753,
  "ZE": 43689,
  "ZI": 42499,
  "Zaman": 33364,
  "Zat": 44480,
  "[": 63,
  "[âĢ¦]": 28789,
  "\\": 64,
  "\\\"": 30875,
  "\\/": 34335,
  "\\\\": 11626,
  "]": 65,
  "],": 19679,
  "].": 11477,
  "]:": 33188,
  "][": 21813,
  "^": 66,
  "^^": 32539,
  "_": 67,
  "_-": 36584,
  "_.": 39544,
  "_^": 18257,
  "__": 8662,
  "____": 19884,
  "________": 35829,
  "`": 68,
  "a": 69,
  "aa": 5080,
  "aaa": 17684,
  "aaaa": 21839,
  "aaah": 37156,
  "aaf": 30912,
  "aafkan": 14128,
  "aah": 20140,
  "aak": 48565,
  "aan": 561,
  "aannya": 19255,
  "aat": 691,
  "ab": 434,
  "aba": 13302,
  "abad": 13192,
  "abah": 6999,
  "abal": 19671,
  "abalu": 36027,
  "aban": 18767,
  "abang": 8261,
  "abangan": 42589,
  "abar": 4657,
  "abaran": 9327,
  "abas": 33220,
  "abase": 8789,
  "abat": 2439,
  "abatan": 3737,
  "abatnya": 12193,
  "abda": 10517,
  "abdian": 13476,
  "abe": 16188,
  "abeanan": 49314,
  "abel": 3264,
  "abeli": 45809,
  "abet": 24956,
  "abeu": 32428,
  "abi": 2327,
  "abic": 38072,
  "abies": 34299,
  "abil": 11245,
  "abila": 3235,
  "abilitas": 13792,
  "ability": 30487,
  "abis": 1816,
  "abisan": 9249,
  "abisi": 28877,
  "abiskan": 3736,
  "abl": 44720,
  "able": 7166,
  "ablet": 26663,
  "abo": 49416,
  "aboh": 47944,
  "abol": 10216,
  "abolisme": 10874,
  "abor": 20072,
  "aborasi": 8568,
  "abowo": 39260,
  "abr": 2849,
  "abrak": 15812,
  "abrani": 47685,
  "abregas": 41868,
  "abrik": 3823,
  "abrikan": 10209,
  "abrikasi": 36358,
  "abrur": 47807,
  "abu": 1138,
  "abuan": 17544,
  "abuh": 27912,
  "abui": 32185,
  "abuk": 13215,
  "abul": 25567,
  "abulan": 40394,
  "abumi": 13453,
  "abung": 8425,
  "abup": 24400,
  "abupaten": 1348,
  "abur": 25829,
  "abus": 22494,
  "abut": 8129,
  "abutan": 22333,
  "aby": 49763,
  "ac": 518,
  "aca": 2697,
  "acah": 49526,
  "acak": 8663,
  "acakan": 39191,
  "acam": 1243,
  "acamata": 9297,
  "acana": 33703,
  "acap": 16906,
  "acar": 32947,
  "acara": 4505,
  "acaran": 19078,
  "acat": 34392,
  "acatan": 34328,
  "acauan": 19058,
  "acci": 49069,
  "ace": 2338,
  "aceae": 44824,
  "acebook": 2975,
  "acement": 44784,
  "acer": 30575,
  "acetan": 10833,
  "ach": 4449,
  "ache": 25227,
  "acher": 38264,
  "achi": 35894,
  "achine": 20874,
  "aching": 20572,
  "acht": 47139,
  "achus": 48504,
  "aci": 13592,
  "acia": 43875,
  "acik": 17474,
  "acing": 12833,
  "acita": 15124,
  "ack": 1763,
  "acker": 9265,
  "acket": 44320,
  "acking": 8222,
  "ackpot": 7493,
  "acle": 25045,
  "aco": 15863,
  "act": 11677,
  "action": 25543,
  "active": 35684,
  "actor": 34777,
  "acu": 5738,
  "acun": 6911,
  "acunan": 22926,
  "acuum": 24925,
  "acy": 17484,
  "ad": 286,
  "ada": 325,
  "adaan": 1578,
  "adaannya": 8746,
  "adaanya": 31964,
  "adab": 27669,
  "adaban": 8769,
  "adah": 1431,
  "adahal": 2176,
  "adahi": 31240,
  "adai": 5269,
  "adaian": 21825,
  "adaikan": 32441,
  "adain": 49342,
  "adak": 7062,
  "adakan": 2776,
  "adalah": 15550,
  "adam": 11661,
  "adan": 1231,
  "adana": 16852,
  "adanan": 30164,
  "adang": 1293,
  "adangan": 5443,
  "adangkan": 32803,
  "adani": 23464,
  "adankan": 25814,
  "adanya": 8724,
  "adap": 25653,
  "adapan": 7862,
  "adaptasi": 9760,
  "adar": 2036,
  "adaran": 5500,
  "adari": 6234,
  "adarma": 38245,
  "adas": 29021,
  "adasi": 13985,
  "adat": 11197,
  "adatan": 31365,
  "adau": 48916,
  "adaya": 20676,
  "add": 28916,
  "ade": 3116,
  "adegan": 38664,
  "adel": 33298,
  "adelphia": 43196,
  "adem": 4701,
  "ademi": 18384,
  "ademy": 20174,
  "aden": 20566,
  "adeni": 42753,
  "ader": 5234,
  "ades": 9915,
  "adesh": 25513,
  "adesimal": 27335,
  "adewa": 39249,
  "adget": 29472,
  "adh": 25987,
  "adha": 32754,
  "adhan": 5694,
  "adhi": 46193,
  "adi": 369,
  "adia": 36393,
  "adiah": 3277,
  "adiahkan": 35146,
  "adian": 22104,
  "adies": 16501,
  "adig": 15344,
  "adigma": 16371,
  "adijah": 37275,
  "adik": 6240,
  "adikal": 49603,
  "adikan": 13092,
  "adiknya": 40819,
  "adiksi": 36470,
  "adil": 30043,
  "adilah": 14899,
  "adilan": 3997,
  "adin": 21193,
  "ading": 4327,
  "adinya": 2828,
  "adio": 10615,
  "adion": 7985,
  "adir": 21853,
  "adiran": 13296,
  "adiri": 23103,
  "adis": 6224,
  "adise": 37167,
  "adisi": 10161,
  "adium": 7307,
  "adiun": 12646,
  "adiyah": 47779,
  "adjir": 46725,
  "admin": 31166,
  "adnya": 50223,
  "ado": 4672,
  "adona": 16542,
  "adopsi": 11247,
  "ador": 19339,
  "adr": 38687,
  "ads": 24249,
  "adu": 3037,
  "aduan": 8266,
  "aduate": 32146,
  "aduh": 25558,
  "aduhan": 38012,
  "aduk": 10128,
  "adukan": 8767,
  "adul": 36269,
  "adung": 50224,
  "aduy": 25075,
  "aduyut": 40739,
  "adv": 46717,
  "adw": 11679,
  "adwal": 15395,
  "adwalan": 38147,
  "adwalkan": 13225,
  "ady": 11119,
  "adz": 7782,
  "adzhab": 26695,
  "af": 794,
  "afa": 24378,
  "afal": 9733,
  "afalkan": 28828,
  "afan": 40804,
  "afar": 36081,
  "afat": 50166,
  "afe": 5016,
  "aff": 15751,
  "affi": 40911,
  "afi": 34655,
  "afia": 19831,
  "afik": 26275,
  "afikan": 36927,
  "afiliasi": 30502,
  "afir": 25958,
  "afiran": 43317,
  "afirkan": 47311,
  "afkan": 11060,
  "afon": 13627,
  "afood": 20893,
  "afs": 6761,
  "afsir": 10306,
  "afsiran": 17135,
  "afsirkan": 20952,
  "aft": 9706,
  "aftar": 1559,
  "aftarkan": 10639,
  "afÃ©": 21654,
  "ag": 344,
  "aga": 2574,
  "agah": 35245,
  "agai": 1977,
  "agaimana": 2432,
  "agak": 11356,
  "agakan": 23977,
  "agal": 46738,
  "agam": 1872,
  "agama": 7754,
  "agamaan": 38434,
  "agaman": 15762,
  "agan": 10459,
  "aganda": 23390,
  "aganya": 11949,
  "agar": 5478,
  "agara": 33829,
  "agari": 42737,
  "agat": 21175,
  "agazine": 36829,
  "age": 2927,
  "agedi": 41988,
  "agement": 10884,
  "agen": 7642,
  "ager": 7795,
  "ages": 23179,
  "aget": 27066,
  "agh": 20844,
  "aghetti": 46190,
  "agi": 445,
  "agia": 3104,
  "agiakan": 16497,
  "agialah": 45512,
  "agian": 636,
  "agic": 14182,
  "agih": 21182,
  "agihan": 12799,
  "agin": 42886,
  "agina": 22391,
  "aging": 10204,
  "agingnya": 44372,
  "aginya": 23151,
  "agle": 37985,
  "agli": 40226,
  "agliari": 44002,
  "agn": 5504,
  "agnetik": 34122,
  "agnos": 39104,
  "agnosa": 16297,
  "agnosis": 11323,
  "ago": 7987,
  "agon": 8557,
  "agonis": 25270,
  "agor": 31573,
  "agori": 37689,
  "agoya": 37936,
  "agr": 41360,
  "agra": 18051,
  "agram": 4124,
  "agrama": 35697,
  "agramable": 35961,
  "agros": 46874,
  "agu": 1383,
  "agub": 16595,
  "ague": 9241,
  "agukan": 6314,
  "agum": 17533,
  "aguman": 34196,
  "agun": 43172,
  "aguna": 40502,
  "agung": 22134,
  "agus": 11939,
  "ah": 275,
  "aha": 1965,
  "ahabat": 5870,
  "ahabatan": 9599,
  "ahagia": 5999,
  "ahagiaan": 7242,
  "ahagian": 20462,
  "ahah": 19043,
  "ahaha": 8267,
  "ahahaha": 23548,
  "ahak": 29870,
  "ahakan": 14296,
  "ahal": 15254,
  "aham": 6833,
  "ahaman": 4116,
  "ahami": 2003,
  "ahaminya": 18145,
  "ahan": 543,
  "ahanam": 15519,
  "ahanan": 4675,
  "ahanannya": 39062,
  "ahanda": 47464,
  "ahankan": 4086,
  "ahannya": 17079,
  "ahap": 6446,
  "ahar": 17415,
  "ahara": 44693,
  "ahari": 3051,
  "aharian": 24836,
  "aharu": 35292,
  "ahas": 1156,
  "ahasa": 2704,
  "ahasan": 4650,
  "ahasis": 10934,
  "ahasiswa": 1530,
  "ahasiswaan": 18105,
  "ahasiswi": 34114,
  "ahat": 2949,
  "ahatan": 5815,
  "ahaya": 2187,
  "ahayaan": 14948,
  "ahb": 49927,
  "ahe": 41726,
  "ahh": 32607,
  "ahi": 7859,
  "ahid": 33526,
  "ahidin": 33602,
  "ahih": 14465,
  "ahil": 45546,
  "ahir": 12365,
  "ahit": 8994,
  "ahitan": 37759,
  "ahitian": 43232,
  "ahkan": 714,
  "ahl": 4825,
  "ahlawan": 14382,
  "ahlawanan": 39943,
  "ahli": 31279,
  "ahlian": 6501,
  "ahlunto": 41247,
  "ahmi": 34020,
  "ahnya": 5891,
  "ahong": 36084,
  "ahter": 4759,
  "ahtera": 9313,
  "ahu": 3369,
  "ahuan": 8359,
  "ahukan": 8730,
  "ahulu": 8581,
  "ahului": 17680,
  "ahulukan": 24200,
  "ahun": 1498,
  "ai": 350,
  "aia": 19971,
  "aian": 2025,
  "aib": 6941,
  "aif": 20856,
  "aig": 49120,
  "aight": 23888,
  "aih": 2482,
  "aihaqi": 43434,
  "aihi": 35450,
  "aik": 1458,
  "aikan": 904,
  "aiknya": 7978,
  "aiku": 49071,
  "ail": 1398,
  "ailable": 34861,
  "ailah": 26343,
  "ailand": 7342,
  "ailit": 44703,
  "aily": 19109,
  "aim": 3693,
  "aimer": 34095,
  "aimin": 30439,
  "ain": 361,
  "aina": 36085,
  "ainan": 6717,
  "aind": 41949,
  "aine": 39228,
  "ainer": 12900,
  "aing": 4024,
  "aingan": 6686,
  "aini": 21165,
  "aining": 8225,
  "ainkan": 1706,
  "ainless": 14835,
  "ainment": 43405,
  "ainnya": 33849,
  "ains": 10235,
  "aint": 12842,
  "ainting": 38548,
  "ainya": 2355,
  "aip": 43657,
  "air": 3125,
  "airah": 49820,
  "airan": 3941,
  "aire": 46888,
  "airo": 30231,
  "ais": 25860,
  "ait": 1209,
  "aitan": 3089,
  "aith": 49363,
  "aitkan": 8615,
  "aito": 48870,
  "aitun": 9712,
  "aiyah": 29490,
  "aiz": 23878,
  "aizena": 47494,
  "aj": 507,
  "aja": 1284,
  "ajaan": 5803,
  "ajah": 4517,
  "ajahan": 35601,
  "ajai": 12080,
  "ajaiban": 14133,
  "ajajaran": 41972,
  "ajak": 1868,
  "ajakan": 15690,
  "ajan": 36601,
  "ajang": 7492,
  "ajar": 1044,
  "ajaran": 1569,
  "ajari": 2749,
  "ajarkan": 41712,
  "ajat": 5065,
  "ajaya": 38484,
  "ajemukan": 48738,
  "ajen": 49213,
  "ajengking": 46165,
  "aji": 3577,
  "ajian": 5885,
  "ajib": 12579,
  "ajikan": 5382,
  "ajin": 5126,
  "ajinan": 8681,
  "ajinasi": 12473,
  "ajjal": 27889,
  "ajo": 17363,
  "aju": 5230,
  "ajuan": 4238,
  "ajud": 38158,
  "ajukan": 11171,
  "ajurit": 8594,
  "ajut": 49460,
  "ak": 272,
  "aka": 1308,
  "akaan": 3699,
  "akah": 1034,
  "akai": 898,
  "akaian": 4110,
  "akailah": 13654,
  "akainya": 30388,
  "akak": 17014,
  "akakan": 49166,
  "akal": 41214,
  "akala": 17170,
  "akalan": 26301,
  "akalanya": 24364,
  "akam": 35083,
  "akaman": 49774,
  "akan": 311,
  "akang": 1975,
  "akangan": 6339,
  "akangi": 20842,
  "akannya": 8333,
  "akanya": 33211,
  "akapan": 8336,
  "akar": 876,
  "akaran": 5266,
  "akari": 37064,
  "akarida": 43382,
  "akarnya": 36012,
  "akarsa": 27591,
  "akarsai": 30287,
  "akarta": 1098,
  "akarya": 15750,
  "akas": 19681,
  "akat": 761,
  "akata": 20038,
  "akatan": 14373,
  "akatau": 28378,
  "akatobi": 33506,
  "akawan": 29781,
  "ake": 5570,
  "akeh": 16609,
  "aken": 33051,
  "aker": 6662,
  "akers": 19948,
  "aket": 5340,
  "akh": 16377,
  "akhir": 1264,
  "akhirnya": 26495,
  "aki": 981,
  "akia": 35335,
  "akian": 13191,
  "akibat": 32602,
  "akil": 2549,
  "akili": 6624,
  "akilkan": 32496,
  "akiman": 24800,
  "akimi": 23509,
  "akin": 869,
  "akinah": 36131,
  "aking": 20689,
  "akinya": 43635,
  "akit": 1352,
  "akitan": 11424,
  "akiti": 29324,
  "akkan": 4294,
  "akmuran": 18520,
  "akn": 12838,
  "akna": 8601,
  "aknat": 32521,
  "akni": 1538,
  "aknya": 1617,
  "ako": 11549,
  "akon": 28190,
  "akoni": 15698,
  "akor": 47789,
  "akota": 42954,
  "akr": 12626,
  "akra": 44892,
  "akraban": 26032,
  "akreditasi": 22802,
  "aks": 799,
  "aksa": 3326,
  "aksaan": 11317,
  "aksakan": 16313,
  "aksan": 25855,
  "aksana": 2403,
  "aksanaan": 9473,
  "aksanakan": 1857,
  "aksananya": 32694,
  "aksasa": 6985,
  "aksasi": 49301,
  "aksel": 33469,
  "akselerasi": 42734,
  "akses": 26942,
  "aksi": 1253,
  "aksian": 16003,
  "aksikan": 14340,
  "aksimal": 13875,
  "aksimalkan": 24210,
  "aksin": 30689,
  "aksinya": 18024,
  "aksir": 23049,
  "aksis": 34687,
  "akso": 8566,
  "akson": 33044,
  "aksono": 39815,
  "aksos": 49107,
  "aksud": 2803,
  "akt": 1608,
  "akta": 12679,
  "aktanya": 10257,
  "aktek": 11077,
  "aktekkan": 16361,
  "aktekkannya": 46582,
  "akter": 2155,
  "akti": 15390,
  "aktian": 22401,
  "aktif": 6170,
  "aktifan": 26962,
  "aktifkan": 15878,
  "aktik": 20743,
  "aktikan": 40554,
  "aktir": 43401,
  "aktis": 43161,
  "aktivitas": 31222,
  "aktor": 6734,
  "aktu": 644,
  "aktual": 24302,
  "aktualisasikan": 48389,
  "aktub": 46983,
  "aktunya": 5355,
  "aktur": 10369,
  "aktus": 35699,
  "aku": 838,
  "akuan": 4966,
  "akuasa": 44771,
  "akuasi": 14798,
  "akui": 23406,
  "akuin": 39837,
  "akuinya": 41961,
  "akukan": 495,
  "akuliah": 38864,
  "akum": 17892,
  "akun": 26357,
  "akunya": 9705,
  "akup": 5555,
  "akur": 19542,
  "akuratan": 25974,
  "akwa": 7017,
  "akwaan": 20340,
  "akwah": 7993,
  "al": 277,
  "ala": 609,
  "alaan": 39200,
  "alaba": 14276,
  "alaf": 16218,
  "alafi": 33488,
  "alaga": 26486,
  "alagi": 1782,
  "alah": 351,
  "alahan": 1571,
  "alahannya": 42148,
  "alahi": 48781,
  "alahkan": 3721,
  "alai": 18179,
  "alaian": 22390,
  "alaih": 37678,
  "alaihi": 11975,
  "alaikan": 31741,
  "alaikat": 7121,
  "alaikum": 12802,
  "alak": 16400,
  "alakan": 20682,
  "alakkan": 27144,
  "alal": 17502,
  "alam": 353,
  "alaman": 1109,
  "alamannya": 12154,
  "alamat": 16358,
  "alamatkan": 37645,
  "alami": 921,
  "alamin": 31885,
  "alaminya": 11764,
  "alamu": 28303,
  "alan": 528,
  "alance": 22805,
  "alang": 4344,
  "alangan": 6035,
  "alannya": 19366,
  "alanta": 34345,
  "alanya": 4259,
  "alap": 7564,
  "alapak": 7439,
  "alaq": 48819,
  "alar": 10846,
  "alas": 5581,
  "alasan": 9810,
  "alase": 32788,
  "alasi": 24297,
  "alaskan": 46150,
  "alat": 3451,
  "alatan": 3860,
  "alatra": 16895,
  "alau": 1014,
  "alauan": 31597,
  "alaud": 48462,
  "alaupun": 2381,
  "alawan": 36034,
  "alaxy": 5719,
  "alay": 37623,
  "alaya": 15677,
  "alayak": 16808,
  "ald": 28930,
  "ale": 10468,
  "aleg": 9747,
  "alem": 10349,
  "alengka": 22384,
  "aler": 23957,
  "ales": 32613,
  "ali": 438,
  "alia": 4948,
  "alian": 2468,
  "alias": 39665,
  "alib": 9577,
  "alic": 47246,
  "alie": 49641,
  "alif": 7864,
  "alifah": 13867,
  "alifahan": 45585,
  "alife": 25105,
  "alifikasi": 9012,
  "alifornia": 15445,
  "alih": 4395,
  "alihan": 12539,
  "alik": 1435,
  "alika": 49646,
  "alikan": 5097,
  "alikannya": 26203,
  "aliknya": 3208,
  "alikota": 6360,
  "alil": 8839,
  "alilah": 38414,
  "alim": 19755,
  "alin": 4704,
  "alinan": 9197,
  "aling": 773,
  "alingkan": 35656,
  "alink": 39582,
  "alinya": 13975,
  "alip": 23482,
  "aliran": 28460,
  "alis": 1069,
  "alisa": 9510,
  "alisasi": 2798,
  "alisasikan": 8389,
  "alisasinya": 32630,
  "alisi": 11353,
  "alisir": 19386,
  "alisis": 7043,
  "alisme": 6796,
  "alisongo": 38525,
  "alitas": 11663,
  "alk": 7506,
  "alkan": 1854,
  "alkannya": 28260,
  "alke": 41975,
  "alkohol": 25305,
  "alkulasi": 45129,
  "all": 1544,
  "alla": 9882,
  "allaahu": 42021,
  "allah": 6593,
  "allahu": 9183,
  "allallahu": 12246,
  "allenge": 24161,
  "allet": 17864,
  "alloh": 39982,
  "ally": 12480,
  "alm": 40728,
  "alnya": 891,
  "alo": 5591,
  "alog": 5973,
  "alogi": 13614,
  "alogikan": 42238,
  "aloid": 48678,
  "alon": 1675,
  "alonan": 22190,
  "along": 32206,
  "alonkan": 18383,
  "alow": 44689,
  "alpot": 19483,
  "als": 10247,
  "alsuan": 24078,
  "alsukan": 28620,
  "alu": 482,
  "aluan": 7107,
  "aluannya": 22740,
  "aluasi": 5092,
  "alue": 14258,
  "alui": 896,
  "aluinya": 41092,
  "alukan": 11667,
  "alum": 34661,
  "alun": 16649,
  "alunya": 30807,
  "alur": 2805,
  "aluran": 13205,
  "alurkan": 15034,
  "alus": 36834,
  "alut": 12845,
  "aly": 17467,
  "am": 281,
  "ama": 375,
  "amaah": 7827,
  "amaan": 4302,
  "amad": 18613,
  "amadya": 40661,
  "amah": 5543,
  "amaha": 6186,
  "amai": 5337,
  "amaian": 9732,
  "amaikan": 14885,
  "amak": 28609,
  "amakan": 3808,
  "amaku": 12458,
  "amal": 11713,
  "amalah": 31504,
  "amalan": 24653,
  "amalat": 42389,
  "amalkan": 24027,
  "amamu": 20188,
  "aman": 558,
  "amana": 12106,
  "amanan": 1828,
  "amanannya": 8391,
  "amani": 40177,
  "amankan": 7465,
  "amannya": 11970,
  "amanya": 1546,
  "amar": 4474,
  "amaran": 38320,
  "amarkan": 22058,
  "amarnya": 38480,
  "amart": 17610,
  "amas": 32012,
  "amasya": 47952,
  "amat": 1271,
  "amata": 32935,
  "amatan": 1842,
  "amater": 19275,
  "amati": 29984,
  "amatkan": 5043,
  "amb": 472,
  "amba": 26350,
  "ambah": 1241,
  "ambahan": 5949,
  "ambahkan": 2248,
  "ambak": 33244,
  "ambakan": 16183,
  "ambal": 22241,
  "amban": 17328,
  "ambanan": 21490,
  "ambang": 4563,
  "ambangan": 6968,
  "ambangkan": 39394,
  "ambar": 1503,
  "ambaran": 22057,
  "ambarkan": 5032,
  "ambas": 34887,
  "ambat": 2738,
  "ambatan": 6678,
  "ambatnya": 20070,
  "ambe": 47904,
  "ambek": 39506,
  "amber": 38458,
  "ambi": 7500,
  "ambil": 994,
  "ambilan": 7824,
  "ambing": 28629,
  "ambisi": 29300,
  "ambo": 37760,
  "amboo": 44908,
  "ambu": 6413,
  "ambua": 47428,
  "ambuhan": 44814,
  "ambuk": 29289,
  "ambung": 3875,
  "ambungan": 13607,
  "amburan": 37411,
  "ambut": 1455,
  "ambutan": 19131,
  "ame": 1233,
  "amed": 25219,
  "amel": 30100,
  "amen": 5199,
  "amena": 40797,
  "ament": 31662,
  "amer": 10077,
  "amera": 11824,
  "amerkan": 13157,
  "ameter": 13437,
  "ami": 749,
  "amia": 49477,
  "amic": 48689,
  "amiin": 19713,
  "amik": 31460,
  "amika": 24904,
  "amil": 14514,
  "amilan": 4636,
  "amilannya": 34243,
  "amin": 1273,
  "amina": 6494,
  "aminan": 10464,
  "aminasi": 15258,
  "amine": 30297,
  "aming": 47824,
  "amini": 42612,
  "amis": 16855,
  "amkan": 3503,
  "ammad": 14039,
  "ammed": 49068,
  "amn": 47935,
  "amnya": 23114,
  "amo": 26985,
  "amobagu": 38553,
  "amol": 39290,
  "amon": 21337,
  "amorf": 35580,
  "amorfosis": 47821,
  "amoto": 31443,
  "amp": 397,
  "ampa": 36450,
  "ampah": 23020,
  "ampai": 3499,
  "ampaian": 12990,
  "ampaign": 28088,
  "ampaikan": 2246,
  "ampainya": 17145,
  "ampak": 2030,
  "ampakan": 33981,
  "ampakkan": 14507,
  "ampaknya": 6084,
  "ampan": 25849,
  "ampanan": 48107,
  "ampang": 3362,
  "ampanye": 25456,
  "ampanyekan": 26787,
  "ampar": 15607,
  "amparan": 43009,
  "ampas": 19837,
  "ampau": 7091,
  "ampaui": 11302,
  "ampe": 27357,
  "ampek": 36612,
  "ampi": 5204,
  "ampiaskan": 13870,
  "ampil": 2238,
  "ampilan": 2216,
  "ampilannya": 9893,
  "ampilkan": 2715,
  "ampilkannya": 43310,
  "amping": 2848,
  "ampingan": 11011,
  "ampingi": 7289,
  "ampingkan": 19544,
  "ampion": 23029,
  "ampions": 46579,
  "ampir": 1628,
  "ampiri": 12893,
  "ampirkan": 15959,
  "ampok": 16572,
  "amps": 45484,
  "ampton": 20769,
  "ampu": 1040,
  "ampuan": 1549,
  "ampukan": 43173,
  "ampun": 36184,
  "ampunan": 23373,
  "ampung": 3257,
  "ampungan": 21799,
  "ampungkan": 34143,
  "ampuni": 19424,
  "ampur": 4201,
  "ampuran": 21589,
  "ampuri": 36424,
  "ampurkan": 14588,
  "ampus": 19608,
  "amr": 48729,
  "amtibmas": 31231,
  "amu": 1148,
  "amuel": 24367,
  "amugari": 17634,
  "amuk": 10227,
  "amun": 602,
  "amus": 25944,
  "an": 261,
  "ana": 443,
  "anaan": 12705,
  "anah": 4106,
  "anahan": 28364,
  "anai": 19414,
  "anak": 1422,
  "anakala": 45781,
  "anakan": 1610,
  "anakku": 33837,
  "anakmu": 43522,
  "anaknya": 8837,
  "anam": 5254,
  "anaman": 8748,
  "anami": 24177,
  "anamkan": 10633,
  "anan": 728,
  "anangan": 50028,
  "anangkan": 19751,
  "anas": 29847,
  "anbul": 21568,
  "anc": 872,
  "anca": 29408,
  "ancam": 10574,
  "ancang": 4423,
  "ancangan": 8537,
  "ancap": 48524,
  "ancar": 3392,
  "ancaran": 13566,
  "ancarkan": 8521,
  "ance": 4982,
  "anced": 27093,
  "ancel": 39276,
  "ancer": 15939,
  "anch": 4911,
  "anchester": 5871,
  "anchise": 49381,
  "ancial": 16726,
  "ancing": 6126,
  "ancingan": 43643,
  "ancis": 4496,
  "ancong": 16094,
  "ancre": 46649,
  "ancur": 6260,
  "ancuran": 14004,
  "ancurkan": 5921,
  "ancy": 25443,
  "and": 450,
  "anda": 1196,
  "andaan": 35828,
  "andai": 3822,
  "andainya": 6286,
  "andak": 41238,
  "andakan": 21621,
  "andal": 42128,
  "andalan": 22855,
  "andalkan": 9894,
  "andan": 8709,
  "andang": 1913,
  "andangan": 2407,
  "andangkan": 29857,
  "andani": 39922,
  "andanya": 28863,
  "andar": 1459,
  "andari": 44050,
  "andarkan": 29227,
  "andasi": 22006,
  "andaskan": 23747,
  "andatangan": 17004,
  "andel": 13563,
  "andemen": 39733,
  "ander": 7799,
  "andera": 41158,
  "anderol": 11735,
  "andez": 36577,
  "andi": 2132,
  "andia": 12507,
  "andian": 17152,
  "andikan": 30923,
  "anding": 1176,
  "andingan": 1558,
  "andingannya": 21624,
  "andingi": 22559,
  "andingkan": 1648,
  "andiri": 3901,
  "andirian": 50182,
  "andise": 27470,
  "andle": 47659,
  "ando": 11428,
  "andom": 17964,
  "andowski": 45636,
  "andr": 16548,
  "andra": 13228,
  "andro": 45467,
  "android": 32708,
  "andu": 6053,
  "anduan": 3845,
  "anduk": 12829,
  "andung": 2166,
  "andungan": 9097,
  "andy": 18908,
  "ane": 21662,
  "anegara": 11025,
  "aneh": 23424,
  "anfaat": 1768,
  "anfaatkan": 2116,
  "ang": 267,
  "anga": 18071,
  "angan": 404,
  "anganan": 6172,
  "angani": 3447,
  "angannya": 7960,
  "angat": 487,
  "angatan": 19496,
  "angd": 10907,
  "angdut": 11780,
  "ange": 9887,
  "anger": 18169,
  "angerang": 5896,
  "angg": 511,
  "angga": 1553,
  "anggaan": 10984,
  "anggah": 31331,
  "anggakan": 10916,
  "anggal": 8035,
  "anggalan": 26820,
  "anggan": 10898,
  "angganan": 9829,
  "anggang": 12102,
  "angganya": 17836,
  "anggap": 1853,
  "anggapan": 42914,
  "anggapi": 7892,
  "anggar": 5640,
  "anggaran": 23423,
  "anggi": 32685,
  "anggih": 4291,
  "anggihan": 18560,
  "anggil": 3948,
  "anggilan": 17419,
  "anggis": 14036,
  "anggota": 20279,
  "anggotaan": 15838,
  "anggrahan": 44353,
  "anggu": 2889,
  "angguan": 3377,
  "angguk": 48962,
  "anggul": 14859,
  "anggulangi": 19628,
  "anggunan": 41717,
  "anggung": 2107,
  "anggungan": 20342,
  "anggungjawab": 14807,
  "anggungjawabkan": 18045,
  "anggunya": 27336,
  "anggup": 4647,
  "anggur": 30364,
  "angguran": 50012,
  "anggut": 30391,
  "angi": 1323,
  "angian": 29964,
  "angin": 18514,
  "anginya": 19547,
  "angis": 17426,
  "angit": 4625,
  "angk": 514,
  "angka": 1074,
  "angkaan": 23025,
  "angkab": 24788,
  "angkabau": 25459,
  "angkah": 1445,
  "angkahkan": 36559,
  "angkai": 25890,
  "angkaian": 4641,
  "angkakan": 47301,
  "angkal": 4967,
  "angkala": 23341,
  "angkalan": 11991,
  "angkali": 9227,
  "angkan": 633,
  "angkang": 17393,
  "angkangan": 10132,
  "angkangannya": 47483,
  "angkanya": 19846,
  "angkap": 3167,
  "angkapan": 30051,
  "angkar": 15446,
  "angkara": 16495,
  "angkaraya": 32962,
  "angkari": 48766,
  "angkas": 9110,
  "angkasan": 22978,
  "angkat": 1244,
  "angkatan": 6359,
  "angkatkan": 20235,
  "angkau": 2686,
  "angkauan": 40993,
  "angkir": 10575,
  "angkis": 18206,
  "angkit": 3994,
  "angkitan": 12629,
  "angkiti": 31549,
  "angkitkan": 9239,
  "angko": 24300,
  "angkok": 8236,
  "angkrik": 20624,
  "angkrutan": 29506,
  "angku": 5842,
  "angkuk": 17777,
  "angkul": 49540,
  "angkum": 28921,
  "angkung": 16206,
  "angkut": 5526,
  "angkutan": 5618,
  "angle": 36702,
  "angnya": 2256,
  "ango": 45310,
  "angon": 41156,
  "angs": 669,
  "angsa": 1968,
  "angsaan": 14181,
  "angsang": 7441,
  "angsangan": 16253,
  "angsanya": 33947,
  "angsari": 36877,
  "angsel": 25658,
  "angsih": 29265,
  "angsing": 6925,
  "angsingkan": 25079,
  "angsit": 35166,
  "angsung": 798,
  "angsungan": 11681,
  "angsungkan": 12066,
  "angsur": 15341,
  "angu": 14186,
  "anguage": 30994,
  "angun": 855,
  "angunan": 1410,
  "angung": 44349,
  "anguskan": 48790,
  "anhu": 31951,
  "ani": 1056,
  "ania": 40438,
  "anian": 3561,
  "anie": 37440,
  "anikan": 22412,
  "aninya": 42546,
  "aniora": 46940,
  "anis": 41891,
  "anita": 1072,
  "anium": 27802,
  "anizer": 22224,
  "anj": 571,
  "anja": 1698,
  "anjak": 8838,
  "anjakan": 6639,
  "anjal": 23421,
  "anjang": 1126,
  "anjangan": 8342,
  "anjangkan": 26585,
  "anjar": 5961,
  "anjat": 14971,
  "anjatkan": 25451,
  "anjaya": 37519,
  "anjen": 35368,
  "anji": 4381,
  "anjian": 5406,
  "anjikan": 6052,
  "anjil": 43787,
  "anjing": 32948,
  "anjir": 25170,
  "anjiran": 37822,
  "anjiri": 22924,
  "anjuk": 24061,
  "anjung": 5529,
  "anjuntak": 40976,
  "anjur": 8390,
  "anjut": 857,
  "anjutan": 6627,
  "anjutannya": 38073,
  "anjutkan": 2645,
  "anjutnya": 1508,
  "ank": 2161,
  "anka": 28456,
  "ankan": 10429,
  "ankas": 25545,
  "anksi": 9314,
  "ann": 15286,
  "annja": 25102,
  "annya": 666,
  "ano": 12329,
  "anon": 40470,
  "ans": 895,
  "ansa": 21335,
  "anse": 48682,
  "ansea": 27348,
  "ansel": 11123,
  "anselnas": 42571,
  "anser": 19518,
  "ansi": 3209,
  "ansia": 32839,
  "ansing": 32716,
  "ansinya": 29535,
  "ansir": 6196,
  "ansus": 23604,
  "ansyah": 14096,
  "ant": 474,
  "anta": 31491,
  "antah": 22128,
  "antahkan": 29245,
  "antai": 1198,
  "antaian": 24428,
  "antam": 38928,
  "antan": 2264,
  "antanan": 24171,
  "antang": 5493,
  "antangan": 4087,
  "antap": 6744,
  "antapan": 34002,
  "antapkan": 22641,
  "antar": 13006,
  "antara": 4382,
  "antaraan": 38727,
  "antaran": 5838,
  "antarkan": 33547,
  "antas": 2420,
  "antasan": 12152,
  "antasi": 13243,
  "antau": 5792,
  "antauan": 11639,
  "ante": 8106,
  "anten": 43925,
  "anteng": 14729,
  "anter": 40556,
  "antero": 28204,
  "antes": 48396,
  "anth": 31201,
  "anthone": 45468,
  "anti": 889,
  "antian": 6011,
  "antiasa": 5863,
  "antic": 31731,
  "antik": 2098,
  "antika": 36167,
  "antikan": 2772,
  "antikannya": 26821,
  "antilah": 41774,
  "antin": 27867,
  "antina": 20873,
  "anting": 13074,
  "antinya": 2186,
  "antis": 7690,
  "antisme": 39844,
  "anto": 4214,
  "antom": 40204,
  "antor": 1941,
  "antoro": 29739,
  "antren": 6813,
  "antri": 18586,
  "antrop": 49786,
  "ants": 26640,
  "antu": 892,
  "antuan": 20098,
  "antui": 21916,
  "antuk": 15779,
  "antuku": 33693,
  "antul": 18418,
  "antum": 6200,
  "antumkan": 9250,
  "antun": 25212,
  "antung": 1514,
  "antungan": 8966,
  "antungku": 39407,
  "antunkan": 35396,
  "antunya": 23871,
  "antura": 39035,
  "anty": 24345,
  "anu": 29319,
  "anus": 33638,
  "any": 1054,
  "anya": 370,
  "anyaan": 2027,
  "anyaannya": 13589,
  "anyak": 1268,
  "anyakan": 1973,
  "anyalah": 37207,
  "anyang": 42874,
  "anyangan": 39408,
  "anye": 4796,
  "anyekan": 25911,
  "anyenya": 50175,
  "anyi": 5139,
  "anyian": 18797,
  "anyikan": 10919,
  "anyo": 45776,
  "anyol": 5150,
  "anyon": 32692,
  "anz": 43275,
  "ao": 41437,
  "ap": 291,
  "apa": 422,
  "apaan": 33575,
  "apabila": 32222,
  "apac": 33654,
  "apah": 44527,
  "apahit": 17016,
  "apai": 1248,
  "apaian": 7374,
  "apain": 19564,
  "apainya": 13897,
  "apak": 2123,
  "apakah": 13737,
  "apakan": 32835,
  "apal": 13050,
  "apalagi": 29194,
  "apan": 724,
  "apanan": 43557,
  "apang": 19625,
  "apannya": 10584,
  "apanuli": 28176,
  "apanya": 30396,
  "apapun": 15371,
  "apar": 13485,
  "aparan": 10283,
  "aparkan": 9664,
  "apas": 8246,
  "apasan": 11847,
  "apasitas": 9535,
  "apat": 377,
  "apatan": 11409,
  "apati": 28302,
  "apatkan": 12034,
  "apaun": 43790,
  "apay": 26277,
  "ape": 7882,
  "apel": 42034,
  "apeptide": 39433,
  "aper": 7487,
  "aperadilan": 43714,
  "aperda": 30203,
  "apet": 25325,
  "apetaka": 29791,
  "aph": 15830,
  "api": 491,
  "apian": 29855,
  "apikan": 20300,
  "apis": 9830,
  "apitu": 23224,
  "apitulasi": 23730,
  "apixel": 31785,
  "apkan": 781,
  "apki": 41302,
  "aplikasi": 11650,
  "aplikasikan": 5447,
  "apnya": 3700,
  "apoker": 24373,
  "apol": 10004,
  "apolda": 29753,
  "apolres": 16904,
  "apolsek": 24790,
  "apor": 10385,
  "aporan": 10125,
  "apore": 10827,
  "aporkan": 5018,
  "app": 4598,
  "appe": 32700,
  "apping": 25354,
  "appy": 10956,
  "apres": 12214,
  "aps": 10776,
  "apt": 5906,
  "aptasi": 7725,
  "aptek": 36227,
  "apter": 17679,
  "aptis": 24639,
  "aptisan": 34286,
  "aptkan": 43498,
  "apu": 24669,
  "apuk": 48185,
  "apuluh": 39209,
  "apun": 1208,
  "apur": 21245,
  "apura": 4847,
  "apus": 4249,
  "apusan": 17068,
  "apuskan": 29499,
  "aput": 15900,
  "aputra": 34163,
  "apy": 21273,
  "aq": 9827,
  "aqi": 37124,
  "ar": 268,
  "ara": 342,
  "araan": 1639,
  "araannya": 20878,
  "arab": 8295,
  "aracter": 35802,
  "araf": 5576,
  "arag": 14890,
  "araga": 33776,
  "arah": 797,
  "arahan": 5528,
  "arahap": 35617,
  "arahi": 20930,
  "arai": 8649,
  "araja": 19596,
  "arak": 5563,
  "arakan": 2734,
  "arakat": 46766,
  "araku": 20613,
  "aram": 30557,
  "aramu": 36292,
  "aran": 506,
  "arance": 46903,
  "aranews": 49064,
  "arang": 683,
  "arangan": 21896,
  "arani": 28585,
  "arankan": 3032,
  "arannya": 7769,
  "aransemen": 36744,
  "aransi": 3196,
  "aranya": 1638,
  "arap": 1971,
  "arapan": 41952,
  "arapannya": 40572,
  "arapidana": 21818,
  "aras": 7680,
  "arasan": 37890,
  "arasi": 21154,
  "araskan": 33562,
  "arasumber": 13257,
  "arat": 1490,
  "aratan": 31146,
  "arathon": 29589,
  "aratkan": 29954,
  "araton": 40272,
  "arator": 42433,
  "aratur": 14358,
  "arau": 13848,
  "araw": 21066,
  "arawa": 37864,
  "arawan": 21072,
  "arawih": 24784,
  "aray": 48792,
  "arbon": 45584,
  "arch": 7471,
  "ard": 1860,
  "arden": 15365,
  "arder": 35625,
  "ardi": 16814,
  "ardir": 49420,
  "ardjo": 26877,
  "ardo": 18111,
  "ardu": 27812,
  "ardy": 37509,
  "are": 4062,
  "area": 35668,
  "aren": 12849,
  "arena": 2687,
  "arenakan": 16535,
  "areng": 12076,
  "arengan": 23537,
  "arep": 22061,
  "arepart": 26503,
  "aret": 16221,
  "arga": 1631,
  "arganegaraan": 39375,
  "arget": 6472,
  "argetkan": 8358,
  "ari": 314,
  "aria": 7395,
  "ariah": 38815,
  "arian": 2031,
  "ariannya": 20334,
  "ariasis": 40909,
  "ariat": 12215,
  "aric": 28290,
  "arier": 32371,
  "arif": 4414,
  "arifan": 19022,
  "arifikasi": 14229,
  "arik": 1066,
  "arikan": 4297,
  "arikannya": 47953,
  "ariku": 16376,
  "arin": 2997,
  "arinah": 45887,
  "arinda": 16104,
  "aring": 4080,
  "aringan": 20009,
  "aringkan": 49162,
  "arinya": 8348,
  "ario": 8863,
  "arir": 16413,
  "aris": 1583,
  "arisan": 19304,
  "arisasi": 24713,
  "arisbawahi": 32717,
  "arises": 29049,
  "arish": 32102,
  "ariskan": 23458,
  "arisme": 37730,
  "aristi": 42815,
  "arit": 31221,
  "aritas": 7870,
  "aritiman": 45576,
  "arium": 16369,
  "ariwisata": 4567,
  "ariwisataan": 37732,
  "ariyah": 42522,
  "arja": 32794,
  "arjo": 8314,
  "ark": 1141,
  "arkah": 40744,
  "arkan": 659,
  "arkas": 22976,
  "arkasi": 47029,
  "arket": 2054,
  "arki": 18845,
  "arkir": 21016,
  "arkirkan": 47112,
  "arkis": 29171,
  "arko": 45565,
  "arkoba": 5372,
  "arkop": 44918,
  "arkotika": 14871,
  "arm": 5070,
  "arman": 41688,
  "armasi": 12567,
  "armon": 19020,
  "armonisan": 19663,
  "arn": 13542,
  "arna": 9844,
  "arnaan": 27877,
  "arning": 17538,
  "arno": 18184,
  "arnya": 1829,
  "aro": 15752,
  "arok": 41737,
  "aron": 33148,
  "arong": 44874,
  "ars": 19723,
  "arsa": 22216,
  "arsip": 24098,
  "arsipan": 28432,
  "arso": 33003,
  "arsono": 37938,
  "art": 640,
  "arta": 2885,
  "artabat": 14934,
  "artai": 18153,
  "artak": 49036,
  "artakan": 39210,
  "artan": 50183,
  "artemen": 4331,
  "artement": 33927,
  "arth": 20352,
  "arti": 1654,
  "artika": 32642,
  "artikel": 15487,
  "artinya": 32296,
  "artir": 46279,
  "artis": 30499,
  "artisipasi": 8084,
  "artment": 20833,
  "arto": 6991,
  "artono": 31223,
  "arts": 34264,
  "aru": 1077,
  "aruan": 9548,
  "aruda": 9597,
  "aruddin": 35112,
  "arudin": 47235,
  "aruf": 30885,
  "aruh": 2108,
  "aruhan": 4336,
  "aruhi": 37481,
  "arui": 15617,
  "aruk": 20808,
  "arung": 7671,
  "arungan": 9823,
  "arus": 26154,
  "arusnya": 2862,
  "arut": 15474,
  "ary": 6409,
  "arya": 42552,
  "aryo": 49539,
  "aryono": 49382,
  "as": 279,
  "asa": 451,
  "asaan": 1629,
  "asaannya": 12442,
  "asabah": 37656,
  "asah": 3568,
  "asahi": 19813,
  "asai": 40801,
  "asain": 31497,
  "asak": 29423,
  "asakan": 1620,
  "asal": 1516,
  "asalan": 20739,
  "asallam": 23411,
  "asam": 40124,
  "asama": 3698,
  "asan": 606,
  "asana": 3569,
  "asanah": 30295,
  "asananya": 23544,
  "asang": 6577,
  "asangan": 13310,
  "asannya": 5143,
  "asanya": 950,
  "asaon": 27548,
  "asar": 1166,
  "asaran": 2100,
  "asarana": 11521,
  "asari": 9014,
  "asarkan": 1572,
  "asarnas": 30483,
  "asat": 18882,
  "asati": 21604,
  "asatinya": 40762,
  "asc": 26178,
  "ascript": 31135,
  "ase": 2402,
  "asem": 29036,
  "aser": 24754,
  "aset": 28165,
  "ash": 3742,
  "ashboard": 21556,
  "ashi": 4218,
  "ashion": 4604,
  "ashoggi": 45406,
  "asi": 352,
  "asia": 3434,
  "asiakan": 22925,
  "asial": 40253,
  "asian": 47903,
  "asiana": 42118,
  "asianya": 27913,
  "asiat": 4145,
  "asiatnya": 11535,
  "asib": 20278,
  "asic": 23252,
  "asih": 1933,
  "asihati": 31683,
  "asik": 32888,
  "asikan": 1584,
  "asiku": 43068,
  "asil": 554,
  "asila": 8201,
  "asilah": 25523,
  "asilan": 2905,
  "asilitas": 2088,
  "asilitasi": 9203,
  "asilkan": 1697,
  "asim": 34792,
  "asin": 27406,
  "asing": 11010,
  "asingkan": 32086,
  "asino": 3320,
  "asinya": 2235,
  "asio": 7834,
  "asional": 1230,
  "asir": 6117,
  "asis": 2972,
  "asiswa": 5690,
  "asitas": 2911,
  "asiun": 3816,
  "asius": 48212,
  "asiwa": 37052,
  "ask": 6964,
  "askan": 3309,
  "asket": 11745,
  "askia": 31174,
  "askin": 30330,
  "askular": 24932,
  "askuler": 49263,
  "askus": 35288,
  "asli": 45634,
  "asm": 35888,
  "asmi": 17182,
  "asnya": 3622,
  "aso": 47072,
  "ason": 12188,
  "aspek": 22738,
  "asrat": 42819,
  "ass": 3617,
  "assador": 37141,
  "assan": 32326,
  "assar": 6144,
  "assin": 37642,
  "asso": 40647,
  "assus": 36604,
  "ast": 3107,
  "astag": 42253,
  "aster": 13714,
  "asti": 14975,
  "astian": 8685,
  "astic": 47656,
  "astikan": 31421,
  "astis": 10580,
  "astisitas": 48221,
  "astr": 38693,
  "astra": 7170,
  "astro": 23507,
  "astuti": 48959,
  "asu": 42834,
  "asuh": 9456,
  "asuki": 14600,
  "asul": 3331,
  "asur": 42067,
  "asuransi": 39680,
  "asut": 37909,
  "aswasta": 35340,
  "asy": 7038,
  "asya": 16849,
  "asyid": 26794,
  "asyikan": 39952,
  "asyim": 19207,
  "at": 269,
  "ata": 444,
  "ataan": 5385,
  "ataannya": 30556,
  "atah": 10127,
  "atai": 21001,
  "atakan": 785,
  "atakanlah": 20703,
  "atal": 2487,
  "atalan": 17838,
  "atalkan": 9453,
  "atalog": 20035,
  "atama": 18929,
  "atan": 421,
  "atana": 43678,
  "atanan": 15491,
  "atang": 861,
  "atangan": 4630,
  "atangani": 9140,
  "atangi": 17228,
  "atangkan": 5610,
  "atani": 37351,
  "atannya": 11036,
  "atanya": 5053,
  "atap": 6145,
  "atapi": 38253,
  "atar": 2745,
  "ataram": 10773,
  "ataran": 40419,
  "atarbel": 27920,
  "atarbelakangi": 29598,
  "atas": 1142,
  "atasan": 9381,
  "atasi": 1793,
  "atasinya": 48033,
  "atat": 3407,
  "atatan": 7368,
  "atau": 4936,
  "atawan": 25916,
  "ate": 1680,
  "ated": 14566,
  "ateg": 1511,
  "ategi": 9988,
  "ategor": 12063,
  "ategori": 3483,
  "ategorikan": 13197,
  "ategory": 36738,
  "atek": 38523,
  "aten": 35446,
  "ater": 3781,
  "aterai": 36557,
  "ateral": 21596,
  "aterapi": 44123,
  "ateri": 22899,
  "atering": 23669,
  "ates": 32362,
  "ath": 8636,
  "atha": 37758,
  "athan": 29093,
  "ather": 15520,
  "athering": 23374,
  "ati": 504,
  "atia": 48806,
  "atian": 3926,
  "atib": 29918,
  "atic": 13695,
  "atie": 43776,
  "atif": 1175,
  "atifikasi": 22074,
  "atiga": 19558,
  "atih": 2174,
  "atihah": 34559,
  "atihan": 2121,
  "atik": 7371,
  "atika": 11954,
  "atikan": 17643,
  "atim": 5807,
  "atimah": 21957,
  "atin": 7292,
  "ating": 9905,
  "atinum": 32680,
  "atinya": 4027,
  "atio": 19350,
  "ation": 2830,
  "ational": 6408,
  "ations": 13111,
  "ationship": 34145,
  "atis": 1303,
  "atisasi": 43214,
  "atisme": 36692,
  "atius": 27633,
  "ativ": 7522,
  "ative": 7665,
  "ativitas": 8202,
  "atkan": 1050,
  "atlet": 36771,
  "atnya": 2218,
  "ato": 11791,
  "atom": 43212,
  "aton": 11787,
  "ator": 2143,
  "atorium": 7917,
  "atory": 30150,
  "atr": 27690,
  "atrader": 40100,
  "ats": 16873,
  "atsu": 45561,
  "att": 26518,
  "atta": 20222,
  "attva": 49413,
  "atu": 425,
  "atua": 30587,
  "atuan": 4692,
  "atuh": 2294,
  "atuhan": 14085,
  "atuhi": 31568,
  "atuhkan": 10451,
  "atukan": 9360,
  "atul": 22536,
  "atum": 40803,
  "atung": 38361,
  "atunya": 1655,
  "atur": 1381,
  "atural": 6769,
  "aturan": 2215,
  "ature": 6265,
  "atus": 2806,
  "atutan": 43105,
  "au": 345,
  "auan": 4276,
  "auannya": 43258,
  "aubat": 21522,
  "aud": 2091,
  "auda": 29416,
  "audara": 3211,
  "audaraan": 16255,
  "aude": 34664,
  "audi": 4651,
  "audio": 40552,
  "audit": 36961,
  "auh": 1029,
  "auhan": 15053,
  "auhid": 15324,
  "aui": 24852,
  "aukan": 12804,
  "aulah": 42439,
  "ault": 13282,
  "aun": 26252,
  "aup": 16009,
  "ausan": 29622,
  "ause": 43817,
  "aut": 21840,
  "auw": 27535,
  "av": 1712,
  "ava": 10225,
  "ave": 11635,
  "aven": 32468,
  "aves": 37095,
  "avi": 16517,
  "avier": 37563,
  "avigasi": 42478,
  "aving": 23514,
  "aviolet": 36422,
  "avior": 37179,
  "avirus": 42843,
  "avorit": 3684,
  "avoritkan": 37631,
  "aw": 439,
  "awa": 890,
  "awaf": 45828,
  "awagub": 46381,
  "awah": 6967,
  "awahan": 23037,
  "awai": 14145,
  "awak": 14710,
  "awakan": 39715,
  "awal": 4358,
  "awala": 44114,
  "awali": 6394,
  "awalnya": 43430,
  "awan": 1039,
  "awanan": 6430,
  "awanannya": 48323,
  "awang": 7757,
  "awangan": 24247,
  "awannya": 9344,
  "awapres": 15658,
  "awar": 5102,
  "awaran": 3790,
  "awari": 26659,
  "awarij": 43743,
  "awarkan": 2198,
  "awarman": 44220,
  "awarna": 42605,
  "awarsa": 42065,
  "awas": 4850,
  "awasaki": 15551,
  "awasan": 2712,
  "awasi": 8082,
  "awasih": 49292,
  "awaslu": 13447,
  "awat": 874,
  "awatan": 2644,
  "awati": 12282,
  "awatir": 2821,
  "awatirkan": 28994,
  "away": 24994,
  "awberry": 22341,
  "awe": 21435,
  "awei": 12050,
  "awesi": 5839,
  "awet": 13486,
  "awetan": 39550,
  "awetkan": 34068,
  "awi": 5004,
  "awijaya": 17775,
  "awin": 46830,
  "awinan": 9866,
  "awir": 28724,
  "awirawan": 43045,
  "awiyah": 25778,
  "awk": 44982,
  "awon": 41490,
  "awuf": 26795,
  "ay": 448,
  "aya": 500,
  "ayaan": 4416,
  "ayaannya": 28745,
  "ayah": 1256,
  "ayahan": 38755,
  "ayakan": 3260,
  "ayal": 34009,
  "ayalah": 14604,
  "ayam": 16219,
  "ayan": 2508,
  "ayana": 48608,
  "ayanan": 1133,
  "ayang": 4131,
  "ayangan": 6281,
  "ayangi": 30421,
  "ayangin": 43483,
  "ayangkan": 8477,
  "ayangnya": 5497,
  "ayani": 3126,
  "ayanya": 10754,
  "ayap": 23431,
  "ayar": 8321,
  "ayarakat": 44420,
  "ayas": 44791,
  "ayasa": 13150,
  "ayasan": 9540,
  "ayat": 6188,
  "ayatan": 39672,
  "ayati": 13396,
  "ayatri": 43675,
  "aye": 46699,
  "ayer": 42059,
  "ayo": 14986,
  "ayon": 45693,
  "ayoran": 19480,
  "aysia": 5545,
  "ayu": 2131,
  "ayun": 38165,
  "ayung": 39483,
  "ayy": 29882,
  "ayyah": 42268,
  "az": 2062,
  "aza": 10410,
  "azada": 7660,
  "azali": 26697,
  "azanah": 38585,
  "aze": 46808,
  "azer": 19167,
  "azi": 37027,
  "azia": 20270,
  "azz": 11605,
  "b": 70,
  "ba": 355,
  "baan": 17687,
  "bab": 4018,
  "baba": 27642,
  "baban": 14693,
  "babeka": 47335,
  "babu": 39065,
  "baca": 6312,
  "bacaan": 34683,
  "bach": 31713,
  "back": 7728,
  "bad": 31642,
  "badan": 31419,
  "bag": 10016,
  "baga": 2362,
  "bagaan": 18308,
  "bagai": 459,
  "bagaimana": 21460,
  "bagi": 11229,
  "bagian": 9298,
  "bagikan": 37055,
  "bagus": 24601,
  "bah": 3885,
  "bahan": 6149,
  "bahannya": 38514,
  "baharui": 18945,
  "bahasa": 15944,
  "bahkan": 16677,
  "bahwa": 19292,
  "baik": 760,
  "baiki": 3445,
  "baiknya": 12423,
  "bait": 49495,
  "baja": 49662,
  "baju": 31936,
  "bak": 4586,
  "bakala": 40077,
  "bakar": 41378,
  "bakteri": 23074,
  "bal": 8247,
  "bala": 29242,
  "balai": 44965,
  "bali": 28732,
  "balik": 16533,
  "balikkan": 50007,
  "balingga": 22208,
  "balipost": 48337,
  "ball": 14148,
  "ban": 1186,
  "band": 13364,
  "bandar": 29267,
  "bandingkan": 41761,
  "bane": 42336,
  "bang": 11042,
  "bangan": 49814,
  "bangkan": 24067,
  "bangpol": 49032,
  "bangsa": 20211,
  "bangun": 46075,
  "bangunan": 24225,
  "bani": 26326,
  "bania": 49321,
  "bank": 12824,
  "bankan": 6259,
  "bannya": 15574,
  "banya": 47201,
  "banyak": 7105,
  "banyaknya": 18871,
  "bao": 26230,
  "bapak": 26376,
  "bar": 2587,
  "bara": 11318,
  "baran": 27139,
  "barang": 5703,
  "barkan": 13552,
  "baru": 2999,
  "barui": 12421,
  "bas": 13462,
  "basari": 45227,
  "base": 36629,
  "based": 45638,
  "basi": 13807,
  "bat": 1416,
  "bata": 30234,
  "batas": 19301,
  "batasan": 6254,
  "batasannya": 48576,
  "batu": 13694,
  "batuan": 47185,
  "batuk": 47920,
  "batussauda": 34551,
  "bau": 15911,
  "bawa": 6544,
  "bawah": 9960,
  "bawahi": 30727,
  "bawi": 31759,
  "bay": 25006,
  "baya": 2797,
  "bayang": 14852,
  "bayangkan": 22495,
  "bayar": 7756,
  "bayaran": 14206,
  "bayi": 32461,
  "bb": 31195,
  "bc": 42055,
  "bd": 46087,
  "be": 5052,
  "bean": 42694,
  "bebas": 44347,
  "beberapa": 24394,
  "bed": 24097,
  "beda": 4183,
  "bedakan": 46000,
  "begitu": 26404,
  "bek": 26031,
  "bekas": 42725,
  "bekerja": 45045,
  "bel": 5344,
  "belajar": 33185,
  "belakang": 39046,
  "belakangan": 46906,
  "beli": 11501,
  "belikan": 32364,
  "belit": 41994,
  "bell": 38427,
  "belline": 40441,
  "beluk": 41810,
  "belum": 21884,
  "ben": 18049,
  "benar": 1600,
  "benarnya": 38080,
  "benda": 11833,
  "bener": 18174,
  "bentuk": 16728,
  "ber": 1049,
  "berapa": 46089,
  "berarti": 43812,
  "berat": 28725,
  "beratkan": 32691,
  "berb": 32929,
  "berbagai": 48308,
  "berbeda": 42053,
  "berdasarkan": 38250,
  "berg": 12637,
  "berh": 35845,
  "berikan": 49553,
  "berikut": 34947,
  "berita": 16498,
  "berk": 40060,
  "berkas": 34298,
  "berl": 36766,
  "bermain": 40772,
  "berry": 9121,
  "bers": 17983,
  "bersama": 37790,
  "bersih": 21248,
  "bert": 16349,
  "bes": 21450,
  "besar": 5813,
  "besaran": 14919,
  "besarkan": 45760,
  "besarnya": 20889,
  "best": 48199,
  "bet": 6373,
  "betes": 16167,
  "betul": 8591,
  "bh": 28177,
  "bi": 3555,
  "bia": 30893,
  "biakan": 35610,
  "bian": 23376,
  "biar": 40255,
  "biasa": 13735,
  "biasanya": 18885,
  "biaya": 17689,
  "bibit": 36426,
  "bid": 31664,
  "bidang": 25078,
  "bie": 18321,
  "bih": 19729,
  "bij": 22319,
  "bijian": 24204,
  "bike": 38263,
  "bil": 25140,
  "bila": 1988,
  "bilitas": 9809,
  "bility": 36640,
  "bin": 15233,
  "binatang": 35728,
  "bincang": 31952,
  "bing": 6459,
  "bintang": 20722,
  "bintik": 23744,
  "bion": 37381,
  "biotik": 10047,
  "bir": 21473,
  "biru": 34107,
  "bis": 27121,
  "bisa": 9838,
  "bisnis": 21979,
  "bit": 4985,
  "bitkan": 6963,
  "bitkannya": 42493,
  "biyah": 27162,
  "biz": 33452,
  "bk": 9878,
  "bkn": 38745,
  "bl": 11479,
  "bla": 49732,
  "black": 42953,
  "ble": 9248,
  "blem": 27932,
  "block": 26685,
  "blog": 8678,
  "blogger": 35598,
  "blogspot": 16172,
  "blok": 42324,
  "bm": 49513,
  "bo": 3014,
  "board": 6507,
  "boat": 34889,
  "bobet": 4622,
  "boc": 43298,
  "body": 34045,
  "bohidrat": 39357,
  "boja": 49899,
  "bok": 36172,
  "bol": 10528,
  "bola": 4464,
  "bolaan": 48275,
  "boleh": 29376,
  "bolinggo": 15813,
  "bolnas": 42199,
  "bon": 12153,
  "bond": 24658,
  "bondo": 24397,
  "bondong": 26113,
  "bone": 49306,
  "bonus": 26271,
  "book": 10029,
  "boot": 48655,
  "bor": 21766,
  "borg": 46033,
  "boro": 41147,
  "bos": 32563,
  "bot": 30714,
  "botol": 40193,
  "bound": 14259,
  "bour": 45400,
  "bourne": 23108,
  "bow": 25815,
  "box": 10364,
  "boy": 23922,
  "bps": 26706,
  "br": 10563,
  "brand": 31747,
  "brasi": 33688,
  "bre": 36517,
  "break": 36397,
  "breaker": 49877,
  "brid": 19433,
  "bro": 19730,
  "bs": 21153,
  "bu": 364,
  "buah": 731,
  "buahan": 8449,
  "buahi": 29339,
  "buan": 20908,
  "buang": 7271,
  "buat": 524,
  "buatan": 1686,
  "bub": 33291,
  "buburit": 45796,
  "bucks": 37905,
  "bud": 8284,
  "budak": 47605,
  "budaya": 21453,
  "budi": 40297,
  "bug": 32728,
  "buh": 641,
  "buhan": 1677,
  "buhannya": 46824,
  "buhi": 34569,
  "buhkan": 3261,
  "buhnya": 38897,
  "builder": 36860,
  "buk": 9153,
  "buka": 25154,
  "bukaan": 18662,
  "bukan": 7855,
  "bukanya": 21588,
  "bukit": 33778,
  "bukti": 17748,
  "buku": 8032,
  "bul": 3341,
  "bulan": 10882,
  "bullah": 29993,
  "bulu": 26247,
  "bum": 5483,
  "bumbu": 31832,
  "bumi": 46301,
  "bun": 31813,
  "bung": 1827,
  "bunga": 16634,
  "bungan": 7659,
  "bup": 32511,
  "bur": 9358,
  "burg": 20448,
  "burn": 36036,
  "buru": 9595,
  "buruh": 38324,
  "buruk": 34502,
  "burung": 24545,
  "bury": 50229,
  "bus": 13078,
  "business": 39193,
  "but": 14571,
  "butir": 45185,
  "butu": 1267,
  "butuh": 34393,
  "butuhkan": 1272,
  "buwono": 49220,
  "buy": 34434,
  "by": 6782,
  "byte": 43539,
  "c": 71,
  "ca": 956,
  "caan": 12497,
  "cab": 22156,
  "cabang": 29868,
  "cah": 41475,
  "cairan": 18907,
  "cak": 4061,
  "cakan": 12795,
  "cakap": 35429,
  "cakapan": 38581,
  "cake": 37664,
  "cal": 12271,
  "caleg": 45111,
  "call": 42075,
  "calon": 26233,
  "cam": 7331,
  "caman": 5746,
  "campur": 36122,
  "can": 20767,
  "cana": 12224,
  "cang": 16880,
  "canopy": 50192,
  "cantik": 24696,
  "canya": 8544,
  "cao": 32202,
  "cap": 11498,
  "cape": 38216,
  "capil": 24478,
  "car": 12871,
  "cara": 546,
  "caranya": 45938,
  "carat": 9763,
  "card": 21814,
  "cardi": 41003,
  "care": 31157,
  "cari": 14242,
  "cas": 30824,
  "casar": 22908,
  "casarjana": 23073,
  "case": 27434,
  "cash": 32409,
  "casino": 43077,
  "cast": 15411,
  "casting": 43034,
  "castle": 25146,
  "cat": 17784,
  "catatan": 32986,
  "cawapres": 45380,
  "caya": 951,
  "cayaan": 35481,
  "cayakan": 23962,
  "cbet": 21934,
  "cc": 10648,
  "cd": 24941,
  "ce": 3179,
  "cealer": 31691,
  "cean": 26752,
  "ced": 29287,
  "cedure": 48704,
  "cek": 30336,
  "cel": 4133,
  "celah": 40513,
  "cell": 27122,
  "celona": 5986,
  "celotti": 31403,
  "cen": 40038,
  "cend": 48230,
  "ceng": 43164,
  "cent": 49747,
  "center": 45249,
  "cep": 39081,
  "cepat": 12576,
  "cer": 13536,
  "cerita": 14678,
  "ces": 16633,
  "cess": 8252,
  "cessor": 14751,
  "cet": 32108,
  "cewek": 35405,
  "ch": 1353,
  "cha": 14495,
  "chain": 19847,
  "chan": 24923,
  "change": 20293,
  "chant": 48989,
  "char": 38355,
  "charge": 49430,
  "chart": 46845,
  "chat": 30493,
  "chback": 32243,
  "che": 15937,
  "check": 40064,
  "chen": 12818,
  "cher": 18873,
  "ches": 48012,
  "chester": 45423,
  "chet": 26566,
  "chi": 10120,
  "ching": 13372,
  "chip": 50236,
  "cho": 32891,
  "chool": 17047,
  "chopus": 47781,
  "chor": 39160,
  "chy": 45839,
  "ci": 2773,
  "cia": 27772,
  "cial": 42761,
  "cience": 18319,
  "cik": 29357,
  "cil": 47481,
  "cin": 28213,
  "cing": 17212,
  "cinta": 24735,
  "cio": 46396,
  "cip": 37192,
  "ciri": 10049,
  "cirinya": 42340,
  "cis": 30239,
  "cit": 38558,
  "cita": 7501,
  "citakan": 32397,
  "citanya": 26594,
  "city": 48998,
  "cium": 47103,
  "cius": 21392,
  "ck": 2265,
  "cket": 33153,
  "cks": 28438,
  "cky": 42120,
  "cl": 9070,
  "claimer": 34409,
  "class": 48800,
  "cle": 18167,
  "cloud": 49264,
  "club": 27937,
  "clusive": 34308,
  "cm": 9562,
  "co": 1319,
  "coba": 16045,
  "code": 21647,
  "cohol": 44707,
  "coin": 4119,
  "cok": 28657,
  "col": 16509,
  "color": 35130,
  "com": 1003,
  "come": 12729,
  "comm": 19529,
  "commerce": 14151,
  "comp": 30710,
  "con": 11934,
  "coneri": 49134,
  "conf": 46331,
  "cong": 45163,
  "cons": 33516,
  "cont": 25955,
  "content": 40188,
  "contoh": 14412,
  "contohnya": 37903,
  "cool": 48363,
  "cop": 43759,
  "cope": 47076,
  "copy": 20915,
  "cor": 16857,
  "core": 14797,
  "coret": 41523,
  "corn": 39741,
  "cos": 48927,
  "coss": 21257,
  "cott": 45778,
  "count": 8279,
  "counting": 31869,
  "cover": 14480,
  "covery": 41527,
  "cow": 32591,
  "cowok": 46690,
  "cp": 44265,
  "cr": 21583,
  "craft": 40379,
  "cream": 35874,
  "crip": 26755,
  "cription": 30839,
  "cs": 11930,
  "ct": 46444,
  "cter": 26732,
  "cu": 17788,
  "cue": 42472,
  "cuit": 38522,
  "cukup": 31384,
  "cul": 34516,
  "cuma": 17186,
  "cumi": 49258,
  "cup": 48973,
  "cur": 28558,
  "cus": 13151,
  "cussion": 49717,
  "cusuar": 39895,
  "cut": 22037,
  "cy": 23766,
  "cycle": 48888,
  "d": 72,
  "da": 326,
  "dad": 25378,
  "dadu": 38218,
  "daerah": 10851,
  "daf": 2632,
  "daft": 2391,
  "daftar": 2667,
  "daftaran": 2938,
  "daftarkan": 6463,
  "dag": 2827,
  "dagang": 14847,
  "dagangan": 3668,
  "dagangkan": 14773,
  "dagar": 36318,
  "daging": 36506,
  "dagri": 18085,
  "dah": 10954,
  "dai": 17143,
  "daian": 36294,
  "dak": 9904,
  "daknya": 36779,
  "dal": 25949,
  "dalam": 7067,
  "dalil": 32864,
  "dam": 12262,
  "dan": 3539,
  "dana": 28614,
  "dang": 3194,
  "dangan": 35657,
  "dani": 33810,
  "dao": 41203,
  "dap": 34670,
  "dapan": 41368,
  "dapat": 5658,
  "dapatkan": 42044,
  "dar": 10715,
  "dara": 38663,
  "darah": 33679,
  "daran": 17401,
  "dari": 3278,
  "das": 25843,
  "dasar": 14273,
  "dasarkan": 4154,
  "dat": 28113,
  "data": 8674,
  "datang": 44748,
  "date": 3762,
  "daun": 29800,
  "daus": 25489,
  "day": 11115,
  "daya": 1996,
  "dayaan": 9818,
  "dayagunaan": 36878,
  "dayagunakan": 47443,
  "dayakan": 14836,
  "dayana": 37687,
  "dayanya": 26633,
  "dayung": 46849,
  "dd": 43732,
  "de": 4707,
  "deb": 21848,
  "debar": 48493,
  "debatkan": 26094,
  "ded": 45690,
  "def": 41301,
  "degan": 34146,
  "dek": 29646,
  "deka": 8862,
  "dekakan": 45807,
  "dekat": 35153,
  "del": 30530,
  "delapan": 35379,
  "dem": 18116,
  "demikian": 45079,
  "den": 12796,
  "dengan": 7847,
  "dengar": 41587,
  "dengarkan": 34809,
  "dep": 28855,
  "depan": 48137,
  "der": 2863,
  "derajat": 26086,
  "deron": 44518,
  "des": 13826,
  "desa": 15963,
  "desain": 27755,
  "desakan": 41626,
  "deso": 45722,
  "desus": 44118,
  "det": 37349,
  "detail": 42033,
  "detik": 18981,
  "dev": 42573,
  "dewa": 33614,
  "dh": 27700,
  "dha": 47330,
  "di": 1154,
  "dia": 12924,
  "diam": 12641,
  "dian": 8675,
  "dib": 22675,
  "dic": 39118,
  "did": 24930,
  "didunia": 50171,
  "die": 23624,
  "dig": 33048,
  "dih": 41559,
  "dik": 8954,
  "dikan": 25750,
  "dikbud": 27147,
  "diknas": 36035,
  "dikti": 25515,
  "dil": 14992,
  "dim": 23517,
  "dimana": 28885,
  "din": 11380,
  "dinding": 40709,
  "ding": 7631,
  "dioksida": 47617,
  "diola": 18425,
  "dip": 20719,
  "diper": 27415,
  "diperankan": 37744,
  "diq": 38276,
  "dir": 9656,
  "diri": 12752,
  "dirkan": 22593,
  "dis": 10142,
  "disebut": 35736,
  "disi": 1291,
  "disini": 43686,
  "disiplin": 48026,
  "disk": 11199,
  "distributor": 29221,
  "dit": 15426,
  "div": 32672,
  "dj": 49265,
  "dk": 11366,
  "dl": 34364,
  "dle": 25659,
  "dll": 26884,
  "dney": 13104,
  "do": 3444,
  "doa": 21722,
  "doc": 34412,
  "dog": 30814,
  "dogan": 32280,
  "dok": 19455,
  "dokter": 30946,
  "dokumen": 26099,
  "dom": 14250,
  "domain": 32263,
  "domba": 43067,
  "domen": 37789,
  "domino": 37143,
  "don": 34319,
  "dong": 27380,
  "door": 10382,
  "dor": 46568,
  "dorf": 49476,
  "doria": 35058,
  "dos": 22457,
  "dosa": 18901,
  "dosanya": 48736,
  "dosen": 32205,
  "dosis": 44604,
  "dot": 29751,
  "down": 17851,
  "download": 18338,
  "dpl": 27940,
  "dr": 5081,
  "dra": 31342,
  "dragon": 15178,
  "drama": 39489,
  "draw": 9917,
  "drawal": 36171,
  "dri": 27352,
  "dro": 25799,
  "drome": 30846,
  "drop": 28091,
  "drus": 33227,
  "ds": 13715,
  "du": 10573,
  "dua": 9426,
  "duanya": 22266,
  "duc": 7966,
  "duct": 10838,
  "duduk": 26765,
  "duga": 36616,
  "duh": 16256,
  "duino": 37947,
  "duk": 587,
  "duka": 23789,
  "dukasi": 29264,
  "dukcapil": 37215,
  "duksi": 32890,
  "dukung": 2796,
  "dul": 2968,
  "dulikan": 31775,
  "dulu": 29652,
  "dung": 2175,
  "dunia": 28493,
  "dur": 35877,
  "dus": 3443,
  "dusen": 4508,
  "duser": 17579,
  "dy": 7095,
  "dz": 41408,
  "e": 73,
  "ea": 1591,
  "ead": 3531,
  "eadilan": 35637,
  "eae": 19319,
  "eak": 14611,
  "eaksi": 13242,
  "eal": 3786,
  "ealand": 36425,
  "ealer": 7353,
  "ealisasi": 17635,
  "ealisasikan": 13348,
  "ealth": 11579,
  "eam": 5442,
  "eaming": 9749,
  "ean": 7538,
  "ear": 5099,
  "earch": 15715,
  "earning": 21410,
  "ears": 49142,
  "eas": 44458,
  "ease": 23244,
  "eat": 11586,
  "eater": 21855,
  "eather": 46607,
  "eau": 35391,
  "eauty": 38000,
  "eb": 309,
  "eba": 33106,
  "ebab": 963,
  "ebabkan": 1433,
  "eback": 26856,
  "ebak": 4436,
  "ebakan": 28697,
  "ebakaran": 45413,
  "ebal": 20225,
  "ebalan": 7033,
  "eball": 27576,
  "eban": 15866,
  "ebang": 18396,
  "ebani": 14523,
  "ebankan": 18843,
  "ebanon": 31133,
  "ebar": 2081,
  "ebaran": 3859,
  "ebarkan": 6467,
  "ebas": 8687,
  "ebasan": 6415,
  "ebaskan": 10109,
  "ebat": 2986,
  "ebatan": 10149,
  "ebatnya": 27196,
  "ebaya": 23210,
  "ebe": 44887,
  "ebek": 31063,
  "ebekan": 36076,
  "ebel": 8451,
  "eber": 533,
  "eberang": 38462,
  "eberangan": 19438,
  "eberapa": 568,
  "eberikan": 35053,
  "eberkan": 21104,
  "eberry": 31694,
  "ebes": 16332,
  "ebet": 23967,
  "ebi": 45117,
  "ebih": 426,
  "ebihan": 1991,
  "ebihannya": 17382,
  "ebihnya": 16452,
  "ebing": 44215,
  "ebird": 13874,
  "eble": 46231,
  "eblog": 47318,
  "ebo": 10083,
  "eboard": 32895,
  "eboh": 41081,
  "ebohan": 41865,
  "ebohkan": 22782,
  "ebok": 40789,
  "ebol": 31612,
  "ebon": 9073,
  "ebook": 2609,
  "ebr": 3651,
  "ebra": 29009,
  "ebrak": 41160,
  "ebrangan": 41855,
  "ebrata": 44553,
  "ebruari": 5318,
  "ebu": 12555,
  "ebun": 45164,
  "ebunan": 7976,
  "ebur": 22232,
  "eburan": 43459,
  "ebus": 7219,
  "ebut": 440,
  "ebutan": 11140,
  "ebutkan": 10061,
  "ec": 696,
  "eca": 30120,
  "ecah": 9728,
  "ecahan": 10245,
  "ecak": 31714,
  "ecamp": 35285,
  "ecast": 34835,
  "ecatan": 25364,
  "ece": 18034,
  "ecehan": 16528,
  "ecehkan": 25426,
  "ecek": 30678,
  "ecer": 33273,
  "eceran": 46854,
  "eces": 42114,
  "ech": 5374,
  "echat": 23659,
  "echn": 11813,
  "echt": 38009,
  "eci": 20698,
  "ecil": 6429,
  "ecilkan": 44787,
  "eck": 5578,
  "ecker": 41086,
  "eclear": 29290,
  "eco": 32169,
  "ecoin": 28880,
  "econ": 31350,
  "ect": 4044,
  "ecta": 48523,
  "ected": 28042,
  "ecting": 47046,
  "ection": 9754,
  "ections": 46152,
  "ective": 24477,
  "ector": 8944,
  "ectr": 15950,
  "ectric": 24526,
  "ectro": 47427,
  "ectronic": 20837,
  "ecuali": 7724,
  "ecualikan": 44993,
  "ecut": 20921,
  "ecutive": 25832,
  "ed": 424,
  "eda": 743,
  "edaan": 2822,
  "edag": 4164,
  "edagang": 4319,
  "edah": 13248,
  "edahan": 16801,
  "edai": 19500,
  "edak": 9323,
  "edakan": 3773,
  "edam": 37518,
  "edan": 12606,
  "edang": 14857,
  "edanya": 26989,
  "edar": 2529,
  "edaran": 42407,
  "edarnya": 26385,
  "edastisitas": 49361,
  "edding": 12382,
  "eddy": 17289,
  "ede": 7951,
  "edek": 31776,
  "edel": 45270,
  "eden": 26662,
  "eder": 16217,
  "edera": 6332,
  "ederai": 43153,
  "ederasi": 33984,
  "ederhanakan": 48949,
  "ederland": 44032,
  "edes": 16948,
  "edi": 1285,
  "edia": 831,
  "ediaan": 6214,
  "ediaannya": 40704,
  "ediakan": 1532,
  "edian": 28357,
  "edianya": 19037,
  "ediasi": 49655,
  "edic": 40148,
  "edik": 40381,
  "edikasi": 26506,
  "edikasikan": 20227,
  "ediksi": 2624,
  "eding": 37402,
  "edisi": 11807,
  "edit": 2019,
  "editasi": 7470,
  "editeran": 31237,
  "editerania": 33037,
  "edo": 9722,
  "edom": 32532,
  "edoman": 25460,
  "edonia": 41970,
  "edor": 29654,
  "edot": 28168,
  "edral": 31305,
  "edri": 21133,
  "eds": 41166,
  "edu": 15485,
  "eduh": 13708,
  "edul": 42144,
  "edule": 38028,
  "edulian": 39692,
  "edulikan": 25294,
  "edung": 3357,
  "edur": 32856,
  "edy": 15224,
  "ee": 2980,
  "eed": 6036,
  "eee": 30442,
  "eeee": 36285,
  "eek": 10322,
  "eel": 10830,
  "eem": 26409,
  "een": 17476,
  "eer": 21272,
  "eera": 41650,
  "eet": 6845,
  "ef": 840,
  "efak": 31336,
  "efek": 19924,
  "efektif": 26015,
  "efer": 3062,
  "eferensi": 3629,
  "eff": 18919,
  "efin": 4834,
  "efinisi": 7110,
  "efinisikan": 10444,
  "efisi": 17164,
  "efisien": 19861,
  "efisiensi": 46984,
  "efit": 22280,
  "eflon": 48194,
  "efon": 29078,
  "efore": 32596,
  "efox": 20985,
  "eft": 26873,
  "eful": 47312,
  "eg": 430,
  "ega": 2561,
  "egagalan": 38759,
  "egagan": 38128,
  "egah": 2562,
  "egahan": 6671,
  "egal": 3573,
  "egala": 18010,
  "egalanya": 43530,
  "egan": 3686,
  "eganes": 43837,
  "egang": 2739,
  "egangan": 10582,
  "egangnya": 41099,
  "egant": 24235,
  "eganya": 45791,
  "egap": 42837,
  "egar": 14894,
  "egara": 3727,
  "egaraan": 16135,
  "egaran": 14874,
  "egas": 2370,
  "egasi": 15534,
  "egaskan": 5273,
  "egat": 33788,
  "egatus": 45921,
  "egaw": 3795,
  "egawai": 4526,
  "egawaian": 18390,
  "egawainya": 31534,
  "ege": 18443,
  "egel": 34111,
  "egen": 48598,
  "eger": 17845,
  "egera": 12143,
  "egeri": 37453,
  "eget": 12672,
  "egi": 2658,
  "egiatan": 3836,
  "egini": 19584,
  "egion": 27498,
  "egional": 12354,
  "egistrasi": 45011,
  "egitu": 1004,
  "eglang": 24127,
  "ego": 7236,
  "egon": 16774,
  "egoro": 9857,
  "egosiasi": 28584,
  "egr": 6183,
  "egradasi": 17470,
  "egram": 22755,
  "egrasi": 8150,
  "egri": 31600,
  "egrini": 41655,
  "egritas": 10579,
  "egro": 39939,
  "egu": 34882,
  "egui": 45853,
  "egukan": 36930,
  "egulasi": 35185,
  "egun": 32434,
  "egur": 47506,
  "eh": 396,
  "eha": 31036,
  "ehab": 31773,
  "ehabil": 15263,
  "ehabilitasi": 15656,
  "ehan": 8011,
  "eharto": 12265,
  "ehat": 8805,
  "ehatan": 1150,
  "ehati": 25616,
  "ehatkan": 12675,
  "ehe": 4451,
  "eheh": 17462,
  "ehehe": 7315,
  "ehehehe": 42529,
  "ehendak": 32858,
  "ehensif": 15100,
  "eher": 5579,
  "ehi": 14917,
  "ehicle": 39814,
  "ehkan": 8816,
  "ehouse": 40399,
  "ei": 1687,
  "eien": 4026,
  "eikh": 33481,
  "eimbangan": 9504,
  "ein": 13487,
  "eing": 28181,
  "eis": 41465,
  "eiver": 31002,
  "ej": 832,
  "eja": 1456,
  "ejabat": 4736,
  "ejahter": 6449,
  "ejahteraan": 7124,
  "ejahterakan": 24504,
  "ejajarkan": 38871,
  "ejak": 2766,
  "ejakulasi": 7178,
  "ejala": 2382,
  "ejalanya": 34639,
  "ejam": 33551,
  "ejamkan": 27696,
  "ejangan": 38991,
  "ejanya": 49624,
  "ejap": 18119,
  "ejar": 12897,
  "ejarah": 10140,
  "ejaran": 28025,
  "ejek": 40384,
  "ejer": 29572,
  "eji": 39147,
  "ejo": 8673,
  "ejolak": 30611,
  "ejoss": 24130,
  "ejuk": 30042,
  "ejutkan": 25196,
  "ek": 337,
  "eka": 489,
  "ekaan": 5938,
  "ekad": 11844,
  "ekah": 9096,
  "ekal": 9147,
  "ekalan": 24978,
  "ekali": 5294,
  "ekalongan": 14594,
  "ekam": 15471,
  "ekan": 1078,
  "ekanan": 10911,
  "ekap": 38038,
  "ekar": 5787,
  "ekarag": 18910,
  "ekaragaman": 21110,
  "ekaran": 20471,
  "ekarangan": 20349,
  "ekas": 17967,
  "ekasan": 27567,
  "ekat": 1356,
  "ekatan": 6779,
  "ekati": 39682,
  "ekatkan": 40094,
  "eke": 26248,
  "eker": 29455,
  "ekerja": 851,
  "ekerjaan": 8216,
  "ekerjakan": 16006,
  "ekerta": 39049,
  "ekh": 49259,
  "eki": 6223,
  "ekik": 33957,
  "ekin": 34028,
  "ekinya": 33191,
  "ekn": 1111,
  "eknik": 8179,
  "ekno": 26726,
  "eknologi": 10650,
  "eknya": 10412,
  "eko": 19113,
  "ekolah": 43981,
  "ekomunikasi": 12874,
  "ekonomi": 31700,
  "ekonomian": 27925,
  "ekor": 7935,
  "eks": 877,
  "eksa": 24953,
  "eksamping": 47094,
  "eksi": 1065,
  "eksiko": 14120,
  "eksinya": 17641,
  "ekspor": 48109,
  "ekstur": 16556,
  "eksual": 17770,
  "ekt": 13061,
  "ektan": 46221,
  "ektar": 8964,
  "ektif": 6269,
  "ektifitas": 43089,
  "ektomi": 40837,
  "ektor": 5003,
  "ektorat": 10859,
  "ektori": 20213,
  "ektr": 3756,
  "ektro": 18277,
  "ektur": 3683,
  "eku": 4165,
  "ekuasaan": 31039,
  "ekuatan": 9840,
  "ekuensi": 6709,
  "ekuensinya": 20781,
  "ekuk": 21514,
  "ekukan": 23397,
  "ekusi": 14609,
  "ekw": 21124,
  "ekwensi": 32657,
  "ekwondo": 38858,
  "el": 290,
  "ela": 1949,
  "elaah": 23254,
  "elaan": 38177,
  "elabuhan": 11977,
  "elaga": 22996,
  "elah": 470,
  "elahan": 5720,
  "elahi": 24853,
  "elahian": 24439,
  "elahiran": 28275,
  "elahirkan": 42001,
  "elahkan": 16344,
  "elai": 8731,
  "elajah": 7641,
  "elajahi": 24332,
  "elajar": 15640,
  "elajaran": 35417,
  "elajari": 3652,
  "elajarinya": 19254,
  "elakaan": 5697,
  "elakan": 21488,
  "elakang": 22193,
  "elaki": 37367,
  "elakkan": 30018,
  "elam": 10340,
  "elamat": 35905,
  "elamkan": 33250,
  "elan": 4406,
  "elancar": 40458,
  "eland": 42139,
  "elang": 3753,
  "elangan": 14924,
  "elanja": 2614,
  "elanjaan": 12981,
  "elap": 26534,
  "elapan": 9847,
  "elar": 3325,
  "elaran": 17774,
  "elas": 848,
  "elasan": 2834,
  "elasi": 15251,
  "elaskan": 2011,
  "elaskannya": 22602,
  "elat": 7066,
  "elatan": 44397,
  "elautan": 25403,
  "elawan": 28706,
  "eld": 7984,
  "elda": 49523,
  "eldoko": 37774,
  "ele": 7504,
  "elease": 45000,
  "eleg": 42726,
  "elegasikan": 49165,
  "eleh": 21577,
  "elek": 5593,
  "elekan": 16004,
  "elektr": 42117,
  "elektual": 36447,
  "elemen": 29014,
  "elen": 29679,
  "eleneh": 43748,
  "eleng": 22257,
  "elengg": 3048,
  "elenggarakan": 5830,
  "elenggu": 32238,
  "elesaikan": 41721,
  "eless": 13604,
  "elet": 22946,
  "elev": 50067,
  "elg": 13100,
  "eli": 1037,
  "elia": 22706,
  "elian": 24602,
  "eliaran": 21687,
  "eliat": 15763,
  "elift": 34162,
  "elih": 4141,
  "elihara": 6218,
  "eliharaan": 9185,
  "eliharanya": 36571,
  "elijen": 16898,
  "eliling": 9617,
  "elin": 28347,
  "eline": 18933,
  "eliner": 21211,
  "eling": 8249,
  "elion": 49148,
  "eliruan": 17527,
  "elis": 5353,
  "elisahan": 23367,
  "elit": 1316,
  "eliti": 4198,
  "elitian": 1778,
  "elitik": 28105,
  "elitilah": 47740,
  "elix": 31459,
  "elkan": 13256,
  "ell": 1899,
  "ella": 7254,
  "ellar": 33444,
  "elle": 29782,
  "ellen": 50216,
  "eller": 8478,
  "elli": 31779,
  "elling": 13283,
  "ello": 22204,
  "ellow": 23952,
  "elly": 4840,
  "elnya": 25344,
  "elo": 16734,
  "elok": 28988,
  "elola": 21820,
  "elompok": 6130,
  "elon": 25845,
  "elor": 24353,
  "els": 4832,
  "elsea": 6787,
  "elson": 33586,
  "elter": 30463,
  "elu": 20579,
  "eluar": 1767,
  "eluarga": 5187,
  "eluargaan": 18646,
  "eluarin": 40109,
  "eluarkan": 2269,
  "eluarkannya": 23173,
  "eluasaan": 33348,
  "eluk": 7930,
  "elum": 551,
  "elumit": 45430,
  "elur": 16607,
  "elus": 13483,
  "elusuran": 16651,
  "ely": 24391,
  "em": 280,
  "ema": 3345,
  "emaah": 17270,
  "emaat": 10549,
  "emah": 7939,
  "emahan": 4450,
  "emahkan": 8349,
  "emahnya": 29020,
  "emai": 48665,
  "emaian": 44975,
  "email": 29402,
  "emajaan": 33744,
  "emak": 14474,
  "emale": 33404,
  "eman": 2061,
  "emanan": 16084,
  "emang": 47272,
  "emangat": 7255,
  "emangnya": 39441,
  "emani": 7050,
  "emania": 48536,
  "emanusiaan": 48141,
  "emar": 3672,
  "emarakkan": 43376,
  "emaran": 12631,
  "emari": 6575,
  "emarinya": 46962,
  "emarkan": 47778,
  "emarnya": 16071,
  "emas": 5341,
  "emasan": 9853,
  "emaskan": 18528,
  "emat": 2369,
  "ematan": 17950,
  "ematian": 37028,
  "ematik": 16757,
  "ematika": 5666,
  "ematis": 20870,
  "ematkan": 13146,
  "emb": 483,
  "emba": 40425,
  "embab": 12767,
  "embabkan": 26085,
  "embada": 28338,
  "embagaan": 45113,
  "embah": 9167,
  "embahan": 12878,
  "embahkan": 11008,
  "embak": 9959,
  "embakan": 21642,
  "embali": 860,
  "embalian": 43753,
  "embalikan": 5202,
  "embalikannya": 32883,
  "embalinya": 40149,
  "embang": 1529,
  "embangan": 1528,
  "embangkan": 2156,
  "embap": 39443,
  "embar": 13123,
  "embara": 30736,
  "embaran": 34927,
  "embatan": 4652,
  "embatani": 27756,
  "embel": 21505,
  "embele": 48260,
  "embelihan": 38141,
  "ember": 1533,
  "embilan": 22431,
  "embira": 21883,
  "embiraan": 14462,
  "embley": 45012,
  "embok": 35664,
  "embuh": 16387,
  "embuhan": 5883,
  "embuhkan": 4257,
  "embung": 14976,
  "embuny": 5109,
  "embunyi": 7716,
  "embunyikan": 9024,
  "emburu": 15609,
  "emburuan": 33213,
  "embus": 16916,
  "embusan": 26514,
  "embuskan": 23515,
  "embut": 29979,
  "eme": 6460,
  "emen": 1297,
  "emenang": 35604,
  "emenin": 45923,
  "ement": 5556,
  "ementasi": 29299,
  "ements": 41603,
  "emer": 36911,
  "emes": 48697,
  "emi": 3200,
  "emia": 9791,
  "emik": 15836,
  "emikian": 2533,
  "emil": 27137,
  "emin": 12556,
  "eminasi": 47669,
  "emis": 13460,
  "emka": 48067,
  "emo": 16494,
  "emon": 10272,
  "emoni": 23811,
  "emonstr": 39344,
  "emonstrasikan": 46179,
  "emooh": 46047,
  "emouth": 34271,
  "emp": 486,
  "empa": 5877,
  "empah": 9814,
  "empak": 37032,
  "empang": 22629,
  "empar": 9975,
  "emparan": 44326,
  "emparkan": 13408,
  "empas": 39923,
  "empaskan": 48903,
  "empat": 594,
  "empatan": 1657,
  "empati": 36854,
  "empatkan": 3415,
  "empek": 42257,
  "empel": 16669,
  "empet": 38790,
  "empit": 17966,
  "empitan": 23475,
  "emplar": 49403,
  "empo": 31637,
  "empol": 38832,
  "empro": 7104,
  "emprot": 15841,
  "emprotan": 28307,
  "emprotkan": 22249,
  "emprov": 9700,
  "empuan": 1830,
  "empur": 19307,
  "empuran": 9483,
  "empurn": 7432,
  "empurna": 22308,
  "empurnaan": 11326,
  "empurnakan": 12297,
  "emput": 8558,
  "emputan": 29775,
  "emputnya": 44758,
  "emu": 2086,
  "emuan": 2469,
  "emudi": 8501,
  "emui": 4510,
  "emuk": 5488,
  "emuka": 8589,
  "emukakan": 8850,
  "emukan": 1052,
  "emur": 13454,
  "emuran": 32178,
  "emy": 30366,
  "en": 264,
  "ena": 417,
  "enaan": 12077,
  "enag": 39366,
  "enaga": 2225,
  "enagai": 35117,
  "enagak": 15113,
  "enagakerjaan": 15202,
  "enah": 19649,
  "enahi": 15655,
  "enai": 8241,
  "enak": 7752,
  "enakan": 2374,
  "enaknya": 20910,
  "enal": 879,
  "enalan": 9427,
  "enali": 13702,
  "enalkan": 4923,
  "enam": 8014,
  "enamkan": 27728,
  "enan": 6908,
  "enang": 1419,
  "enangan": 1693,
  "enanganan": 44802,
  "enangi": 15806,
  "enangkan": 2356,
  "enankan": 18294,
  "enanya": 4555,
  "enap": 10522,
  "enapi": 37990,
  "enar": 629,
  "enaran": 4200,
  "enarik": 13082,
  "enariknya": 16284,
  "enario": 12259,
  "enarkan": 8642,
  "enarnya": 1357,
  "enas": 24476,
  "enazah": 15381,
  "enburg": 49586,
  "enc": 864,
  "encan": 7532,
  "encana": 1683,
  "encanaan": 5810,
  "encanakan": 5615,
  "encananya": 8610,
  "encang": 30382,
  "ence": 5724,
  "enceng": 25563,
  "encer": 13940,
  "encerkan": 48163,
  "ences": 29351,
  "encet": 28394,
  "ench": 18572,
  "enci": 7750,
  "encia": 16507,
  "encian": 13001,
  "encing": 11716,
  "ency": 9028,
  "end": 452,
  "enda": 1884,
  "endaft": 18202,
  "endaftaran": 19974,
  "endag": 36260,
  "endagri": 40959,
  "endah": 2085,
  "endahan": 27405,
  "endahara": 18924,
  "endaharaan": 30667,
  "endahkan": 17106,
  "endahuluan": 34485,
  "endak": 3047,
  "endakan": 32466,
  "endaki": 9048,
  "endaklah": 41711,
  "endaknya": 7936,
  "endalian": 22531,
  "endalikan": 6510,
  "endam": 6375,
  "endaman": 38117,
  "endan": 45315,
  "endang": 9148,
  "endapat": 4635,
  "endapatkan": 10806,
  "endar": 35553,
  "endara": 4862,
  "endarai": 11373,
  "endat": 30588,
  "ended": 22178,
  "endek": 29579,
  "endekan": 37007,
  "endel": 44067,
  "endela": 5846,
  "enden": 33915,
  "ender": 2068,
  "endera": 46163,
  "enderal": 6502,
  "enderungan": 11370,
  "endi": 12836,
  "endian": 20745,
  "endidikan": 9520,
  "endikbud": 20648,
  "ending": 19411,
  "endir": 12456,
  "endiri": 3315,
  "endirian": 23796,
  "endo": 20245,
  "endok": 49670,
  "endong": 15618,
  "endor": 8466,
  "endr": 47832,
  "endra": 16505,
  "endral": 20574,
  "endudukan": 15591,
  "endum": 33912,
  "endung": 18722,
  "endy": 21491,
  "ene": 7460,
  "enek": 6294,
  "eneng": 39612,
  "ener": 1333,
  "enerasi": 2877,
  "eneratif": 44669,
  "energi": 20886,
  "enernya": 12448,
  "eness": 44187,
  "enet": 49799,
  "eng": 285,
  "engah": 1105,
  "engahan": 7815,
  "engahkan": 45257,
  "engaja": 16120,
  "engajaan": 37636,
  "engalaman": 24290,
  "engan": 317,
  "engang": 23728,
  "engangkan": 31438,
  "engar": 1137,
  "engarai": 34506,
  "engaran": 15350,
  "engarannya": 25765,
  "engarkan": 4789,
  "engaruh": 3710,
  "engaruhi": 2674,
  "engat": 13509,
  "enge": 19604,
  "enger": 7800,
  "engers": 32340,
  "engerti": 11671,
  "engetahuan": 22062,
  "engg": 1180,
  "enggal": 14930,
  "enggalek": 21407,
  "enggam": 10546,
  "engganan": 50235,
  "enggang": 15103,
  "enggarakan": 8235,
  "engger": 20983,
  "enggol": 32426,
  "enggot": 30690,
  "enggu": 37250,
  "enggung": 46324,
  "enggut": 26666,
  "engin": 46772,
  "engk": 783,
  "engka": 20183,
  "engkakan": 9766,
  "engkan": 23261,
  "engkang": 19001,
  "engkap": 1317,
  "engkapan": 5106,
  "engkapannya": 36234,
  "engkapi": 2537,
  "engkapinya": 39020,
  "engkapnya": 3068,
  "engkar": 19393,
  "engkaran": 20215,
  "engkel": 41660,
  "engkelkan": 23695,
  "engketa": 15444,
  "engki": 44645,
  "engking": 41954,
  "engku": 18426,
  "engkuas": 40186,
  "engkuh": 37679,
  "engkur": 34692,
  "engo": 45652,
  "engok": 12770,
  "engs": 22485,
  "engsaraan": 32558,
  "engsek": 46959,
  "engsi": 10613,
  "ength": 42355,
  "enguk": 27771,
  "engung": 44240,
  "engus": 44691,
  "enh": 32373,
  "enhagen": 43582,
  "eni": 5794,
  "enia": 19201,
  "enial": 13233,
  "enian": 10659,
  "ening": 3175,
  "eningan": 30650,
  "enir": 44810,
  "enis": 827,
  "enium": 24112,
  "enius": 16933,
  "enix": 30564,
  "enj": 2386,
  "enjak": 9129,
  "enjang": 8329,
  "enjangan": 19454,
  "enjar": 9573,
  "enjata": 13440,
  "enjataan": 34452,
  "enjatai": 33513,
  "enjolan": 6946,
  "enjot": 24910,
  "enk": 30443,
  "enkan": 32896,
  "enkripsi": 44046,
  "enn": 27880,
  "enna": 25346,
  "enne": 43456,
  "enni": 27967,
  "enny": 24438,
  "ennya": 20855,
  "eno": 10950,
  "enol": 24962,
  "enom": 5022,
  "enomena": 6151,
  "enominasi": 34985,
  "enov": 9033,
  "enovo": 9467,
  "enre": 22769,
  "ens": 1759,
  "ensa": 8033,
  "ensasi": 12761,
  "ense": 6665,
  "ensen": 47175,
  "enser": 29111,
  "enset": 13818,
  "ensi": 894,
  "ensia": 21293,
  "ensial": 22143,
  "ensif": 7811,
  "ensik": 35929,
  "ensin": 12191,
  "ensinya": 8892,
  "ensis": 32943,
  "ensitas": 31362,
  "ensive": 38886,
  "ensor": 18687,
  "ensus": 20007,
  "ent": 432,
  "enta": 9395,
  "entah": 28655,
  "entak": 8979,
  "ental": 3743,
  "entalan": 41233,
  "entalis": 39720,
  "entan": 40667,
  "entanan": 37245,
  "entang": 3228,
  "entangan": 7626,
  "entangkan": 25519,
  "entar": 2670,
  "entara": 1335,
  "entary": 46099,
  "entas": 27009,
  "entasan": 20797,
  "entase": 9027,
  "entasenya": 48541,
  "entasi": 3119,
  "entasikan": 7889,
  "entasinya": 25596,
  "entaskan": 30238,
  "ente": 23500,
  "ented": 36613,
  "enteng": 6500,
  "entengi": 37152,
  "enter": 2757,
  "entera": 29971,
  "enterian": 4621,
  "enti": 2351,
  "ential": 19263,
  "entian": 13740,
  "entic": 45522,
  "entif": 15644,
  "entific": 50072,
  "entifikasi": 30142,
  "entik": 14567,
  "entikan": 4642,
  "entikasi": 36301,
  "entil": 31163,
  "entilah": 30101,
  "entina": 9512,
  "entine": 30490,
  "enting": 3751,
  "entingan": 3720,
  "entingkan": 15777,
  "entino": 47157,
  "entinya": 19620,
  "ention": 21746,
  "entitas": 23862,
  "ento": 21116,
  "entot": 21362,
  "entr": 8192,
  "entra": 48192,
  "entral": 8368,
  "entralisasi": 23546,
  "entraman": 36376,
  "entrasi": 5557,
  "entre": 16871,
  "entri": 40190,
  "entrian": 14670,
  "entrik": 29764,
  "entrikel": 43968,
  "entris": 36825,
  "ents": 19995,
  "entu": 642,
  "entuan": 3898,
  "entuannya": 36922,
  "entuh": 4619,
  "entuhan": 5312,
  "entuk": 920,
  "entukan": 1710,
  "entukannya": 46920,
  "entul": 26463,
  "entum": 10744,
  "entunya": 3890,
  "entur": 14294,
  "entura": 38744,
  "enturan": 13936,
  "enture": 43701,
  "entury": 26920,
  "entut": 28883,
  "enue": 43343,
  "enuh": 3521,
  "enuhan": 10742,
  "enuhi": 4833,
  "enuhinya": 35023,
  "enun": 34147,
  "enungan": 32395,
  "eny": 2864,
  "enya": 3766,
  "enyak": 15982,
  "enyamanan": 30519,
  "enyap": 13430,
  "enyapkan": 28978,
  "enyawa": 32353,
  "enyum": 5040,
  "enyut": 16946,
  "enz": 20749,
  "enza": 28142,
  "enzhen": 41915,
  "enzo": 15302,
  "eo": 8143,
  "eoja": 37601,
  "eon": 9315,
  "eor": 18207,
  "eorang": 1258,
  "eorangan": 20219,
  "ep": 410,
  "epa": 47179,
  "epad": 29311,
  "epage": 42763,
  "epak": 4550,
  "epakatan": 7054,
  "epakati": 11188,
  "epal": 30178,
  "epam": 43020,
  "epan": 4278,
  "epang": 21921,
  "epankan": 12827,
  "epannya": 8428,
  "epar": 46473,
  "epara": 45902,
  "epare": 37906,
  "epas": 1961,
  "epasan": 17618,
  "epasang": 35061,
  "epaskan": 49111,
  "epat": 701,
  "epatah": 14820,
  "epatan": 2634,
  "epatitis": 14671,
  "epe": 43642,
  "epeda": 11214,
  "epend": 8429,
  "epes": 48322,
  "epet": 13216,
  "eph": 41137,
  "epi": 17721,
  "eping": 30565,
  "epit": 16488,
  "epkan": 26088,
  "eplay": 17554,
  "epokan": 44373,
  "epon": 3563,
  "eponema": 31587,
  "eport": 14964,
  "eportasi": 44722,
  "eposit": 38123,
  "epot": 9383,
  "epotan": 24028,
  "epotisme": 45840,
  "epotkan": 13963,
  "eppo": 41296,
  "epreneur": 34771,
  "epret": 40790,
  "eps": 32481,
  "epsi": 6799,
  "epsikan": 44662,
  "ept": 15025,
  "eptide": 37267,
  "eptik": 23698,
  "eption": 45166,
  "epuh": 21369,
  "epuk": 18859,
  "epung": 26204,
  "er": 263,
  "era": 800,
  "eraan": 40649,
  "erah": 985,
  "erahan": 5992,
  "erahkan": 18026,
  "erai": 3873,
  "eraian": 15074,
  "erajaan": 8198,
  "erajat": 30898,
  "erak": 32969,
  "eral": 5695,
  "eram": 18604,
  "eramah": 32610,
  "eran": 1798,
  "eranan": 46076,
  "erang": 3169,
  "erank": 41570,
  "erankan": 10341,
  "eransi": 10504,
  "eranya": 20621,
  "eras": 44883,
  "erasan": 24668,
  "erasi": 9226,
  "erat": 7028,
  "erator": 39705,
  "erawat": 14759,
  "erb": 1282,
  "erbal": 2206,
  "erbang": 30602,
  "erbangan": 37497,
  "erbau": 49214,
  "erboard": 23455,
  "erboom": 41971,
  "erby": 28479,
  "erc": 31849,
  "erd": 3478,
  "erdas": 20788,
  "erdasan": 7428,
  "erdaskan": 25081,
  "erdeka": 27903,
  "erdekaan": 6930,
  "erdin": 28592,
  "erdinand": 36021,
  "ere": 14352,
  "eren": 35723,
  "ereng": 14928,
  "eret": 29272,
  "erg": 30246,
  "ergen": 23104,
  "ergi": 5714,
  "erh": 2084,
  "erhana": 2172,
  "erhanaan": 22048,
  "erhananya": 36851,
  "erhati": 26311,
  "eri": 748,
  "eria": 27933,
  "eriahan": 32153,
  "eriahkan": 15151,
  "erial": 12424,
  "erie": 32141,
  "erifikasi": 6231,
  "erigi": 45950,
  "erikan": 34344,
  "ering": 4712,
  "eringkan": 26778,
  "erint": 1023,
  "erintah": 1178,
  "erintahan": 3256,
  "erintahkan": 10365,
  "erinya": 17369,
  "erior": 43778,
  "erit": 2790,
  "erita": 1107,
  "eritaan": 12393,
  "eritage": 34648,
  "eritahukan": 49904,
  "eritakan": 4355,
  "eritanya": 9368,
  "erj": 2129,
  "erja": 759,
  "erjaan": 7239,
  "erjain": 29700,
  "erjakan": 3151,
  "erjanya": 14324,
  "erjasama": 6524,
  "erjen": 21832,
  "erlang": 16197,
  "erm": 9494,
  "erman": 24466,
  "ermatan": 36797,
  "ermati": 20959,
  "ermentasi": 20726,
  "ermin": 12387,
  "ermo": 46192,
  "ern": 1191,
  "erna": 14626,
  "ernaan": 7323,
  "ernak": 22262,
  "ernakan": 24860,
  "ername": 17719,
  "ernas": 33109,
  "ernet": 38784,
  "ernia": 17820,
  "ernih": 10901,
  "ernihan": 39648,
  "erny": 48120,
  "ernya": 28650,
  "ero": 4801,
  "erob": 16268,
  "erobohan": 44427,
  "erol": 21206,
  "erra": 40194,
  "erry": 21070,
  "ers": 2032,
  "ersal": 44101,
  "ersatu": 35812,
  "erse": 27483,
  "ersediaan": 39379,
  "ersey": 10343,
  "ersfield": 43770,
  "ership": 23762,
  "ersil": 22603,
  "erson": 19321,
  "ert": 3334,
  "erta": 1341,
  "ertaan": 23627,
  "ertak": 23314,
  "ertanya": 22321,
  "ertaris": 48115,
  "erti": 1962,
  "ertian": 4159,
  "ertiban": 26162,
  "ertilitas": 31016,
  "erto": 36636,
  "erty": 31128,
  "eru": 18700,
  "eruk": 40718,
  "erv": 40418,
  "ervasi": 11182,
  "erve": 26265,
  "ery": 9759,
  "es": 302,
  "esa": 5873,
  "esaan": 10583,
  "esahan": 17672,
  "esai": 2244,
  "esaian": 10013,
  "esaikan": 2793,
  "esain": 4902,
  "esak": 8078,
  "esakan": 38074,
  "esal": 46976,
  "esalan": 13672,
  "esan": 1983,
  "esanan": 3033,
  "esankan": 12962,
  "esannya": 19860,
  "esar": 564,
  "esaran": 7449,
  "esat": 13044,
  "esatan": 27215,
  "esc": 26129,
  "eschool": 35729,
  "eschooling": 40563,
  "esco": 38371,
  "ese": 11066,
  "esek": 28388,
  "esekan": 43383,
  "esel": 13498,
  "eser": 7826,
  "eseran": 19487,
  "eserta": 12750,
  "esertaan": 41052,
  "eset": 20265,
  "esh": 15864,
  "esha": 32932,
  "esi": 1139,
  "esia": 17494,
  "esian": 47106,
  "esias": 31777,
  "esibukan": 37899,
  "esidenan": 49500,
  "esif": 6147,
  "esifik": 7306,
  "esifikasi": 2930,
  "esign": 12127,
  "esin": 7789,
  "esinya": 24486,
  "esional": 27407,
  "esioner": 24038,
  "esir": 39967,
  "esis": 7908,
  "esit": 27982,
  "esitas": 10684,
  "esium": 22212,
  "esk": 1482,
  "eskan": 14093,
  "eskop": 30804,
  "eskrim": 17949,
  "eskripsi": 27688,
  "eskripsikan": 6499,
  "esl": 44126,
  "esm": 9294,
  "esmian": 15174,
  "esnya": 39802,
  "eso": 30402,
  "esokan": 12155,
  "esome": 46151,
  "esona": 9608,
  "esor": 11452,
  "esp": 30411,
  "espa": 24237,
  "esraan": 32401,
  "ess": 2138,
  "essa": 42710,
  "esse": 37574,
  "essi": 7256,
  "essica": 21403,
  "essional": 9384,
  "essor": 28459,
  "essy": 47705,
  "est": 897,
  "esta": 5910,
  "estan": 16762,
  "estari": 13177,
  "estarian": 14144,
  "estariannya": 50213,
  "estarikan": 12717,
  "estasi": 1733,
  "estay": 20271,
  "este": 22612,
  "ester": 2585,
  "estern": 23100,
  "esterol": 7174,
  "estesi": 36782,
  "esti": 17051,
  "estic": 36925,
  "estik": 10234,
  "estin": 32972,
  "estina": 9533,
  "estinasi": 4515,
  "estinya": 6689,
  "estion": 40432,
  "estiv": 6739,
  "estival": 6800,
  "esto": 18333,
  "estone": 40150,
  "estr": 24070,
  "estro": 29668,
  "estrol": 38723,
  "esu": 2290,
  "esuai": 7286,
  "esuaian": 9215,
  "esuaikan": 3417,
  "esuatu": 16229,
  "esus": 3296,
  "esut": 48508,
  "et": 339,
  "eta": 2328,
  "etaan": 17824,
  "etab": 16603,
  "etabek": 16930,
  "etah": 849,
  "etahana": 28238,
  "etahu": 7970,
  "etahuan": 2241,
  "etahui": 1079,
  "etahuilah": 22034,
  "etahuinya": 10202,
  "etahun": 25230,
  "etail": 6343,
  "etak": 1453,
  "etakan": 5833,
  "etakkan": 6651,
  "etakkannya": 33840,
  "etakutan": 35213,
  "etan": 4111,
  "etangga": 40934,
  "etanol": 42804,
  "etanya": 48597,
  "etap": 6148,
  "etapan": 7141,
  "etapi": 2114,
  "etapkan": 3044,
  "etar": 22379,
  "etarkan": 40696,
  "etas": 8998,
  "etasan": 33523,
  "etasi": 47688,
  "etat": 32250,
  "etch": 25317,
  "ete": 18759,
  "etek": 37210,
  "eteksi": 7316,
  "etelah": 1158,
  "eter": 2610,
  "eteran": 17531,
  "eteruan": 33764,
  "etes": 4180,
  "eth": 10868,
  "ething": 39184,
  "eti": 15775,
  "etic": 26044,
  "etik": 3096,
  "etika": 1615,
  "etin": 19885,
  "eting": 11152,
  "etis": 10215,
  "etkan": 21395,
  "etnya": 16492,
  "eto": 36504,
  "eton": 31675,
  "etooth": 12741,
  "etr": 12391,
  "etra": 15010,
  "etrasi": 15264,
  "etri": 35615,
  "etrika": 43280,
  "etron": 10101,
  "ets": 25496,
  "ett": 22236,
  "etta": 36695,
  "ette": 8569,
  "etti": 33110,
  "etting": 44177,
  "ettino": 41759,
  "etto": 40516,
  "etty": 44013,
  "etu": 1000,
  "etua": 2479,
  "etuai": 30894,
  "etualang": 23145,
  "etualangan": 34807,
  "etubuh": 24480,
  "etubuhi": 43356,
  "etugas": 13054,
  "etuj": 7508,
  "etuju": 19479,
  "etujuan": 9149,
  "etujuh": 37894,
  "etujui": 7880,
  "etujuinya": 42778,
  "etuk": 17325,
  "etukan": 38543,
  "etul": 2816,
  "etulan": 5049,
  "etulkan": 37479,
  "etulnya": 7040,
  "etum": 38351,
  "etup": 40086,
  "etur": 7060,
  "eturunan": 31974,
  "etus": 10866,
  "etusan": 19549,
  "etuskan": 29916,
  "ety": 10660,
  "eu": 26863,
  "euh": 47066,
  "eum": 5259,
  "eur": 7820,
  "eus": 27697,
  "ev": 908,
  "eva": 23801,
  "evakuasi": 24190,
  "evaluasi": 10378,
  "eve": 14223,
  "evel": 3098,
  "even": 11653,
  "event": 28170,
  "ever": 10527,
  "everage": 23308,
  "eview": 12720,
  "evin": 16803,
  "evisi": 4254,
  "evitalisasi": 43835,
  "evo": 32991,
  "evolusi": 21242,
  "ew": 615,
  "ewa": 1727,
  "ewaan": 8861,
  "ewah": 15465,
  "ewahan": 18281,
  "ewajib": 11277,
  "ewajiban": 16300,
  "ewakan": 7456,
  "ewaktu": 33141,
  "ewali": 43149,
  "ewall": 31583,
  "ewan": 2297,
  "ewanya": 27915,
  "eward": 30722,
  "eware": 36483,
  "ewarna": 35643,
  "ewas": 8395,
  "ewasa": 2710,
  "ewasaan": 23362,
  "ewaskan": 23310,
  "ewat": 2052,
  "ewatan": 38743,
  "ewati": 3271,
  "ewatinya": 24898,
  "ewatkan": 6529,
  "ewawancara": 23022,
  "ewe": 22177,
  "ewek": 5583,
  "ewel": 39305,
  "ewenang": 49759,
  "ewengan": 38087,
  "ewet": 33812,
  "ewi": 7246,
  "ewok": 22272,
  "ework": 22550,
  "ews": 6666,
  "ewu": 28024,
  "ex": 2764,
  "exa": 30132,
  "exe": 26628,
  "ext": 12322,
  "exus": 23026,
  "ey": 2182,
  "eyan": 24833,
  "eye": 48408,
  "eyen": 25697,
  "eyeon": 37592,
  "eymar": 15392,
  "ez": 2867,
  "eza": 20652,
  "ezat": 5955,
  "ezatnya": 41869,
  "eze": 34573,
  "ezer": 21688,
  "ezmann": 30993,
  "ezone": 34832,
  "f": 74,
  "fa": 3289,
  "faat": 862,
  "faatan": 7657,
  "fac": 45679,
  "face": 15128,
  "facebook": 40678,
  "fah": 28351,
  "fair": 42884,
  "fak": 35464,
  "fakta": 19521,
  "faktor": 11468,
  "fal": 25031,
  "fall": 42243,
  "fam": 41359,
  "fan": 14475,
  "far": 17459,
  "fase": 49609,
  "fashion": 45211,
  "fasilitas": 30672,
  "fast": 28719,
  "fat": 1737,
  "fe": 30395,
  "fect": 14967,
  "feed": 40917,
  "feksi": 13763,
  "fel": 36775,
  "fem": 43091,
  "fer": 2612,
  "feral": 35360,
  "ference": 23715,
  "ferensi": 8898,
  "ff": 1875,
  "ffe": 36216,
  "ffee": 13458,
  "ffer": 35370,
  "ffic": 14854,
  "ffin": 36757,
  "ffing": 28052,
  "ffle": 30695,
  "fford": 25093,
  "ffy": 32455,
  "fi": 3856,
  "fiah": 22542,
  "fiber": 33357,
  "fic": 41610,
  "fica": 37981,
  "fidz": 42962,
  "fie": 21486,
  "fied": 44920,
  "field": 15423,
  "fifah": 27511,
  "fik": 10118,
  "fikasi": 3117,
  "fikir": 47969,
  "fil": 11775,
  "file": 19000,
  "film": 13017,
  "filman": 26994,
  "fin": 25531,
  "final": 32968,
  "fing": 22322,
  "fiq": 23830,
  "fir": 17803,
  "fire": 38260,
  "firullah": 48587,
  "fish": 39100,
  "fisik": 42739,
  "fit": 14095,
  "fitur": 12231,
  "fl": 33998,
  "flame": 33571,
  "flas": 40353,
  "flase": 44953,
  "flet": 45172,
  "flix": 38333,
  "flow": 34280,
  "fly": 27602,
  "fm": 46975,
  "fo": 29578,
  "fol": 43462,
  "foli": 44809,
  "folio": 37617,
  "follow": 22789,
  "fon": 20666,
  "fone": 13625,
  "font": 42009,
  "food": 30999,
  "for": 12241,
  "ford": 11460,
  "forex": 44256,
  "form": 764,
  "forma": 17859,
  "formal": 32223,
  "formasi": 859,
  "formasikan": 11073,
  "format": 26808,
  "fort": 24032,
  "forum": 32618,
  "foto": 6983,
  "fotonya": 42264,
  "fps": 48968,
  "fr": 5621,
  "frag": 33122,
  "fragma": 39871,
  "frame": 45876,
  "fre": 44717,
  "free": 28198,
  "fren": 13161,
  "fri": 28659,
  "friend": 31695,
  "friendly": 47127,
  "frika": 8145,
  "fs": 21538,
  "fsirkan": 28968,
  "ft": 1465,
  "ftware": 4107,
  "fu": 24970,
  "fud": 22027,
  "ful": 12619,
  "full": 24372,
  "fum": 10390,
  "function": 34637,
  "fungsi": 9071,
  "fungsikan": 45814,
  "fur": 18120,
  "furan": 42297,
  "furt": 34131,
  "g": 75,
  "ga": 299,
  "gaan": 42735,
  "gabung": 2097,
  "gabungan": 46523,
  "gabungkan": 7911,
  "gadang": 29524,
  "gadis": 22635,
  "gado": 35165,
  "gae": 37175,
  "gag": 5727,
  "gagalan": 7010,
  "gagalkan": 26524,
  "gagasan": 40627,
  "gah": 32186,
  "gai": 436,
  "gaib": 15759,
  "gaimana": 915,
  "gain": 33694,
  "gaji": 26843,
  "gak": 1726,
  "gal": 30906,
  "gala": 35568,
  "galan": 36555,
  "galanya": 31582,
  "gam": 18728,
  "gambar": 13838,
  "game": 16721,
  "games": 47736,
  "gami": 36659,
  "gampang": 27384,
  "gan": 1399,
  "ganda": 43414,
  "gandakan": 32053,
  "ganegaraan": 22943,
  "gang": 41651,
  "gangguan": 45560,
  "gano": 32284,
  "gantara": 40780,
  "ganti": 17925,
  "gantung": 13968,
  "gantungan": 12370,
  "ganya": 2392,
  "gap": 16717,
  "gar": 5082,
  "gara": 10355,
  "gard": 49289,
  "gari": 16867,
  "garia": 41132,
  "garis": 17759,
  "gart": 45744,
  "gas": 1260,
  "gasi": 15443,
  "gaskan": 13868,
  "gat": 43736,
  "gatal": 16013,
  "gate": 28435,
  "gaulan": 11871,
  "gawa": 20364,
  "gaya": 27886,
  "gb": 22492,
  "ge": 4108,
  "ged": 24009,
  "gedung": 23837,
  "gejala": 14152,
  "gel": 13841,
  "geleng": 47329,
  "gemb": 38900,
  "gen": 3633,
  "gender": 42025,
  "generasi": 36952,
  "genital": 46750,
  "gensi": 24611,
  "gent": 35503,
  "ger": 1457,
  "gerai": 23437,
  "gerak": 2642,
  "gerakan": 6353,
  "gerakkan": 49390,
  "gereja": 25125,
  "gerik": 43048,
  "gers": 28124,
  "ges": 18380,
  "gesa": 26712,
  "get": 1732,
  "getar": 17138,
  "gg": 2162,
  "gh": 13577,
  "ghan": 22573,
  "ght": 12150,
  "gi": 508,
  "gia": 8943,
  "gian": 6205,
  "giang": 36968,
  "giat": 25868,
  "gic": 40568,
  "gie": 27739,
  "gigi": 34034,
  "gigit": 26165,
  "gil": 20527,
  "gila": 26477,
  "gimana": 49235,
  "gin": 5030,
  "ginal": 9277,
  "ging": 6922,
  "gio": 18780,
  "gis": 45091,
  "git": 12846,
  "gitar": 45489,
  "gitu": 43282,
  "gium": 47919,
  "gk": 1943,
  "gkau": 8323,
  "gl": 12789,
  "glass": 36995,
  "gle": 41504,
  "glomer": 33022,
  "gmail": 20736,
  "gn": 2791,
  "go": 4484,
  "gol": 37414,
  "gold": 45994,
  "golongan": 44599,
  "gon": 17085,
  "gong": 39991,
  "good": 47260,
  "google": 36319,
  "gor": 39786,
  "gorit": 12972,
  "goritma": 14225,
  "gosok": 49680,
  "goyang": 46429,
  "gp": 15996,
  "gr": 809,
  "grade": 9554,
  "graf": 9710,
  "grafi": 20977,
  "gram": 1189,
  "gran": 14292,
  "grana": 38797,
  "grang": 50158,
  "grasi": 9050,
  "gratis": 25334,
  "gratiskan": 42066,
  "green": 41732,
  "gres": 21002,
  "grid": 41471,
  "gris": 1806,
  "ground": 11070,
  "group": 36344,
  "grup": 37461,
  "gry": 50094,
  "gs": 24838,
  "gt": 24704,
  "gu": 7774,
  "gua": 42319,
  "guay": 49246,
  "gub": 15696,
  "gue": 42811,
  "gula": 46907,
  "gumen": 36892,
  "gun": 501,
  "guna": 2868,
  "gunaan": 4577,
  "gunakan": 548,
  "gunan": 29404,
  "guncang": 30701,
  "gung": 18234,
  "gunung": 23476,
  "gunya": 12164,
  "gur": 44617,
  "guru": 13970,
  "gus": 2212,
  "guson": 33739,
  "gw": 50179,
  "gy": 9424,
  "h": 76,
  "ha": 2137,
  "haan": 47171,
  "hab": 10845,
  "habis": 33549,
  "habisan": 24058,
  "habisnya": 49279,
  "had": 844,
  "hadap": 1012,
  "hadapan": 49327,
  "hadapi": 26815,
  "hadiah": 33200,
  "hadiran": 44978,
  "hadis": 46182,
  "hadits": 30409,
  "hadow": 16270,
  "hae": 22627,
  "hael": 13136,
  "haga": 39461,
  "hah": 17027,
  "haha": 41103,
  "hahaha": 44413,
  "hai": 13732,
  "hair": 20782,
  "haj": 28522,
  "hak": 8590,
  "haka": 29636,
  "haknya": 46531,
  "hakti": 23404,
  "hal": 2109,
  "halah": 44406,
  "halaman": 29516,
  "halat": 38195,
  "halus": 46054,
  "ham": 3027,
  "hamb": 44829,
  "hamba": 25732,
  "hamdul": 4993,
  "hamdulilah": 24074,
  "hamdulillah": 5444,
  "hampir": 31643,
  "han": 940,
  "hana": 14661,
  "hanakan": 27517,
  "hanan": 26095,
  "hananya": 22446,
  "hand": 30170,
  "hang": 39177,
  "hangat": 45723,
  "hani": 13630,
  "hanks": 18205,
  "hannel": 9964,
  "hanvi": 41312,
  "hanya": 15314,
  "hao": 40583,
  "haq": 33249,
  "har": 1123,
  "hara": 22868,
  "harap": 20601,
  "harapan": 19832,
  "harat": 39593,
  "harata": 45795,
  "hard": 12977,
  "hare": 16163,
  "harga": 3467,
  "hargaan": 4237,
  "harge": 26149,
  "hari": 2424,
  "harinya": 17936,
  "harjo": 30210,
  "harm": 38856,
  "harma": 13744,
  "harta": 37491,
  "harus": 27452,
  "has": 20839,
  "hasil": 6635,
  "hasilan": 4844,
  "hasilannya": 24873,
  "hat": 1071,
  "hatan": 33070,
  "hati": 4113,
  "hatian": 2566,
  "hatikan": 1855,
  "hatilah": 19823,
  "hats": 5683,
  "hatsApp": 36912,
  "hatsapp": 13091,
  "hawat": 6645,
  "hawatiran": 10368,
  "hawatirkan": 10371,
  "hay": 45125,
  "he": 1277,
  "hea": 22455,
  "head": 19842,
  "heal": 47748,
  "heat": 36789,
  "hee": 28976,
  "heel": 24503,
  "heet": 17443,
  "hehe": 26583,
  "hehehe": 34046,
  "heim": 30213,
  "heimer": 26399,
  "heis": 45446,
  "hel": 10960,
  "helatan": 16322,
  "hem": 37548,
  "hen": 12285,
  "hentian": 30605,
  "hentikan": 16586,
  "hentinya": 28886,
  "her": 2405,
  "heran": 46122,
  "herat": 43186,
  "herbal": 41517,
  "here": 16142,
  "hereum": 27491,
  "herine": 48767,
  "hering": 29374,
  "hero": 20697,
  "herry": 48660,
  "hes": 49088,
  "hewan": 22577,
  "hey": 41592,
  "hez": 26354,
  "hh": 7491,
  "hhh": 23091,
  "hhhh": 35964,
  "hi": 1826,
  "hia": 26713,
  "hian": 19349,
  "hianati": 25298,
  "hias": 28590,
  "hiasan": 11609,
  "hib": 24420,
  "hibition": 47774,
  "hid": 28205,
  "hidup": 21214,
  "hie": 20538,
  "high": 41133,
  "hij": 32849,
  "hijaz": 35636,
  "hijjah": 37734,
  "hika": 47514,
  "hil": 13148,
  "hill": 49601,
  "him": 46302,
  "himpunan": 29697,
  "hin": 13312,
  "hing": 34826,
  "hingga": 30985,
  "hini": 35227,
  "hio": 33385,
  "hiopia": 49072,
  "hip": 11226,
  "hir": 688,
  "hira": 45648,
  "hird": 38261,
  "hire": 27456,
  "hiri": 6829,
  "hirnya": 4313,
  "hiro": 35393,
  "hirt": 13946,
  "his": 17109,
  "hislam": 47184,
  "hist": 47164,
  "hit": 3259,
  "hitam": 38088,
  "hite": 11058,
  "hitung": 22951,
  "hitungan": 5330,
  "hitungkan": 9632,
  "hium": 39453,
  "hkan": 1162,
  "hl": 3425,
  "hlak": 11492,
  "hless": 45492,
  "hlm": 48189,
  "hluk": 4880,
  "hly": 47204,
  "hm": 16777,
  "hmina": 26425,
  "hmm": 47873,
  "hna": 35708,
  "ho": 1845,
  "hoa": 11493,
  "hod": 24527,
  "hoda": 46235,
  "hoeae": 49802,
  "hoi": 27796,
  "hok": 27170,
  "hol": 18298,
  "holm": 35129,
  "hom": 49789,
  "home": 43458,
  "hon": 15248,
  "hone": 1426,
  "hong": 44210,
  "hood": 44745,
  "hoot": 28663,
  "hop": 30616,
  "hor": 43618,
  "hori": 47882,
  "hormon": 49999,
  "host": 24126,
  "hosting": 44831,
  "hot": 10685,
  "hotbah": 41192,
  "hotel": 16436,
  "hotelan": 28295,
  "hou": 15614,
  "house": 21975,
  "hout": 38807,
  "hp": 41583,
  "hr": 16710,
  "hrib": 22981,
  "hritis": 29196,
  "hs": 42303,
  "ht": 2973,
  "htag": 32529,
  "hti": 45756,
  "html": 20041,
  "htt": 33761,
  "http": 20003,
  "https": 34138,
  "hu": 6945,
  "hua": 42076,
  "hub": 18930,
  "hubungan": 10928,
  "hud": 40946,
  "huk": 24421,
  "hukam": 39190,
  "hukum": 17239,
  "hul": 29274,
  "hum": 13723,
  "humas": 48252,
  "hun": 39161,
  "huni": 29656,
  "hur": 18969,
  "hura": 49591,
  "hurt": 19855,
  "huruf": 31107,
  "hus": 40310,
  "husus": 7168,
  "hususan": 39985,
  "hususkan": 13036,
  "hut": 17948,
  "hutan": 38608,
  "hutani": 28551,
  "hutla": 49191,
  "huwah": 33401,
  "hwa": 44076,
  "hy": 6085,
  "hya": 38301,
  "hyang": 48339,
  "hyl": 34598,
  "hyuk": 37994,
  "hyun": 27757,
  "i": 77,
  "iPhone": 47693,
  "ia": 358,
  "iaan": 7723,
  "iac": 41144,
  "iace": 31185,
  "iaga": 8119,
  "iagaan": 32744,
  "iah": 2489,
  "iak": 12318,
  "iakan": 5513,
  "ial": 3732,
  "ialog": 25936,
  "iam": 6613,
  "iamis": 21443,
  "ian": 390,
  "iana": 10944,
  "ianan": 35934,
  "ianat": 27001,
  "ianatan": 35149,
  "iang": 27455,
  "iani": 25054,
  "ianjur": 18305,
  "iannya": 16448,
  "iano": 13719,
  "iansi": 19380,
  "iansyah": 33740,
  "iant": 34199,
  "ianti": 48314,
  "ianto": 11312,
  "ianya": 25682,
  "iao": 16886,
  "iaomi": 5475,
  "iap": 2139,
  "iar": 4804,
  "iarah": 16276,
  "iaran": 17909,
  "iarkan": 4160,
  "ias": 8288,
  "iasa": 6115,
  "iasaan": 3537,
  "iasakan": 13018,
  "iasi": 10314,
  "iaskan": 46416,
  "iat": 2857,
  "iater": 29639,
  "iaw": 34600,
  "iawai": 29884,
  "iawaian": 50232,
  "iawan": 11801,
  "iaya": 1309,
  "iayaan": 7726,
  "iayai": 12049,
  "ib": 560,
  "iba": 43845,
  "ibadah": 9560,
  "ibah": 7546,
  "ibahkan": 48575,
  "ibal": 49504,
  "ibanya": 32866,
  "ibar": 13118,
  "ibaran": 47622,
  "ibaratkan": 22774,
  "ibarkan": 34346,
  "ibas": 34051,
  "ibat": 1554,
  "ibatan": 12100,
  "ibatkan": 2440,
  "ibel": 43463,
  "iber": 7297,
  "iberikan": 47336,
  "ibi": 28297,
  "ibilitas": 28386,
  "ibir": 28765,
  "ibit": 27505,
  "ibitan": 27735,
  "iblat": 21615,
  "ible": 22773,
  "ibli": 12477,
  "ibo": 43106,
  "ibr": 19662,
  "ibra": 40581,
  "ibraka": 33943,
  "ibrator": 41807,
  "ibril": 22009,
  "ibu": 1716,
  "ibuan": 37850,
  "ibubur": 29108,
  "ibur": 3448,
  "iburan": 2528,
  "iburkan": 49138,
  "ibus": 39030,
  "ibutan": 26167,
  "ic": 723,
  "ica": 6842,
  "ical": 8717,
  "ican": 15428,
  "icap": 17229,
  "icar": 39159,
  "icara": 2179,
  "icaraan": 35666,
  "icarakan": 6378,
  "icaralah": 47709,
  "icate": 44681,
  "icated": 49452,
  "ication": 14498,
  "ications": 39948,
  "icator": 25624,
  "icau": 23841,
  "ice": 2661,
  "icenya": 48631,
  "icer": 23351,
  "ices": 13182,
  "icester": 18541,
  "ich": 6296,
  "iche": 21146,
  "ichi": 25269,
  "ici": 23808,
  "icia": 42538,
  "icial": 10725,
  "icil": 19845,
  "icin": 33040,
  "icine": 31586,
  "icio": 45752,
  "icip": 8514,
  "icipi": 9978,
  "ick": 3479,
  "icken": 24092,
  "icker": 48731,
  "ickey": 31099,
  "icking": 47951,
  "icky": 15712,
  "icle": 33027,
  "ico": 8306,
  "icoba": 24642,
  "icon": 12266,
  "icorn": 49631,
  "ics": 13178,
  "iction": 48108,
  "ictor": 43567,
  "icu": 4931,
  "icunya": 37057,
  "icus": 43988,
  "icy": 21498,
  "id": 318,
  "ida": 4128,
  "idad": 49470,
  "idae": 36654,
  "idah": 3827,
  "idak": 362,
  "idaknya": 3245,
  "idal": 23996,
  "idam": 27738,
  "idamkan": 22127,
  "idan": 5761,
  "idana": 5086,
  "idanan": 26074,
  "idane": 21127,
  "idang": 1449,
  "idangan": 12790,
  "idangkan": 17256,
  "idap": 10402,
  "idar": 26669,
  "idas": 18513,
  "idasi": 7858,
  "idat": 5438,
  "idato": 9023,
  "iday": 30079,
  "idaya": 7784,
  "ide": 1094,
  "iden": 1690,
  "idenan": 45574,
  "idence": 22022,
  "ident": 14956,
  "identifikasi": 6491,
  "identikkan": 47342,
  "ideo": 1695,
  "ider": 6233,
  "idermis": 39155,
  "ides": 28898,
  "idge": 16627,
  "idh": 30954,
  "idhaan": 47384,
  "idi": 5288,
  "idia": 21712,
  "idih": 15886,
  "idik": 3049,
  "idikan": 1259,
  "idiki": 13237,
  "idin": 13259,
  "iding": 29379,
  "idio": 25320,
  "idir": 35148,
  "idiri": 40662,
  "idis": 34553,
  "iditas": 17222,
  "idium": 30937,
  "idmat": 40695,
  "ido": 6883,
  "idoarjo": 11542,
  "idol": 35965,
  "idor": 18593,
  "idot": 38023,
  "idrasi": 14228,
  "ids": 14756,
  "idu": 19817,
  "iduk": 42377,
  "idul": 11391,
  "idum": 25107,
  "idung": 16441,
  "idup": 742,
  "idupan": 1573,
  "idupannya": 10942,
  "idur": 1507,
  "iduran": 45186,
  "iduri": 42527,
  "idya": 36481,
  "idz": 22402,
  "idzi": 23619,
  "ie": 2359,
  "ied": 22656,
  "iel": 49972,
  "ield": 16967,
  "ieq": 26349,
  "ier": 39520,
  "ies": 6916,
  "iet": 7084,
  "ietnam": 10870,
  "iety": 26473,
  "iew": 2491,
  "if": 811,
  "ifa": 18076,
  "ifah": 17006,
  "ifas": 28314,
  "ifat": 12965,
  "ife": 8651,
  "ifenol": 39043,
  "ifer": 18928,
  "ifest": 20995,
  "ifestyle": 27036,
  "iff": 15137,
  "iffany": 36794,
  "iffel": 47340,
  "ifi": 7415,
  "ific": 22756,
  "ifier": 23852,
  "ifikasi": 2303,
  "ifilm": 48193,
  "ifinal": 14429,
  "iforl": 17260,
  "iforlif": 17840,
  "ift": 6032,
  "ify": 41406,
  "ig": 1372,
  "iga": 1865,
  "igakan": 20418,
  "igami": 21433,
  "igan": 27504,
  "iganya": 29132,
  "igasi": 11228,
  "ige": 31774,
  "igen": 43813,
  "iger": 12673,
  "igeria": 23381,
  "igh": 6041,
  "ight": 5945,
  "ighter": 29403,
  "ighting": 27620,
  "igi": 3342,
  "ign": 6462,
  "igner": 27211,
  "igo": 12839,
  "igu": 15514,
  "iguain": 33745,
  "igur": 11893,
  "igurasi": 12867,
  "ih": 324,
  "iha": 28632,
  "ihab": 27241,
  "ihad": 11280,
  "ihah": 39274,
  "ihai": 29943,
  "ihak": 1207,
  "ihal": 25377,
  "ihan": 1204,
  "ihannya": 28221,
  "ihar": 10801,
  "ihara": 22450,
  "iharapkan": 13009,
  "ihari": 27110,
  "ihat": 589,
  "ihatan": 4467,
  "ihatin": 17490,
  "ihatinan": 26138,
  "ihatinkan": 17692,
  "ihatkan": 28617,
  "ihatsu": 13857,
  "ihe": 48206,
  "ihi": 6981,
  "ihihi": 19219,
  "ihin": 33990,
  "ihir": 17025,
  "ihist": 49888,
  "ihkan": 2150,
  "ihnya": 46232,
  "iho": 24675,
  "ihome": 49299,
  "ii": 8550,
  "iii": 26026,
  "iiii": 39678,
  "iin": 48595,
  "ij": 1232,
  "ijab": 16460,
  "ijahan": 48874,
  "ijak": 18327,
  "ijakan": 2633,
  "ijaksanaan": 16960,
  "ijang": 22966,
  "ijat": 9831,
  "ijatan": 20346,
  "ijau": 2898,
  "ijauan": 21695,
  "ijen": 29911,
  "iji": 12420,
  "ijik": 26715,
  "ijin": 42467,
  "ijinan": 37468,
  "ijing": 18704,
  "ijinkan": 18254,
  "ijrah": 12343,
  "ijri": 18682,
  "ik": 294,
  "ika": 431,
  "ikah": 2637,
  "ikahan": 3083,
  "ikai": 47679,
  "ikaian": 34417,
  "ikal": 11419,
  "ikalau": 7999,
  "ikam": 38093,
  "ikan": 462,
  "ikanan": 10537,
  "ikandi": 41499,
  "ikannya": 13568,
  "ikanya": 21972,
  "ikap": 2497,
  "ikapi": 13480,
  "ikapinya": 39788,
  "ikapun": 50029,
  "ikar": 37345,
  "ikari": 34662,
  "ikarta": 34704,
  "ikasi": 646,
  "ikasikan": 10295,
  "ikasinya": 20323,
  "ikat": 1537,
  "ikata": 35889,
  "ikatan": 16039,
  "ikatif": 35269,
  "ikatkan": 36846,
  "ikator": 6220,
  "ikatur": 37136,
  "ikbud": 16327,
  "ike": 6315,
  "ikel": 1413,
  "iken": 45635,
  "iker": 7909,
  "ikeras": 23468,
  "iket": 1089,
  "ikh": 7878,
  "ikhl": 23251,
  "ikhlas": 36119,
  "ikhlasan": 24272,
  "ikhtiar": 41635,
  "iki": 7294,
  "ikian": 1261,
  "ikil": 20030,
  "ikin": 2947,
  "iking": 21657,
  "ikip": 14391,
  "ikipedia": 14493,
  "ikir": 974,
  "ikiran": 3805,
  "ikirkan": 4144,
  "ikis": 20649,
  "ikit": 1159,
  "ikk": 37314,
  "ikkan": 7561,
  "ikkhu": 43281,
  "ikl": 14414,
  "iklan": 11144,
  "iklanan": 17515,
  "iklankan": 24277,
  "ikm": 1314,
  "ikmah": 10869,
  "ikmahnya": 29738,
  "ikmalaya": 16751,
  "ikmat": 4811,
  "ikmatan": 8937,
  "ikmati": 1742,
  "ikmatinya": 15021,
  "ikmatnya": 18129,
  "ikmisi": 27444,
  "iknas": 32755,
  "iknya": 4188,
  "iko": 2900,
  "ikon": 36694,
  "ikop": 18818,
  "ikopter": 22519,
  "ikor": 32200,
  "ikosteroid": 40311,
  "ikot": 39240,
  "ikota": 44752,
  "ikr": 34784,
  "ikro": 6722,
  "ikroba": 44794,
  "iks": 2716,
  "iksa": 3203,
  "iksaan": 3950,
  "iksakan": 14215,
  "iksalah": 47421,
  "iksanya": 29909,
  "iksel": 29308,
  "iksi": 2418,
  "iksinya": 48377,
  "iku": 2503,
  "ikuk": 26485,
  "ikukuh": 42626,
  "ikul": 4961,
  "ikuler": 19998,
  "ikultur": 34174,
  "ikultura": 39832,
  "ikulum": 6554,
  "ikum": 11592,
  "ikus": 49156,
  "ikut": 673,
  "ikutan": 23503,
  "ikuti": 1473,
  "ikutip": 15501,
  "ikutserta": 27941,
  "il": 300,
  "ila": 829,
  "ilaan": 29110,
  "ilaf": 15694,
  "ilah": 1035,
  "ilahan": 35626,
  "ilahkan": 22960,
  "ilai": 1010,
  "ilaian": 5685,
  "ilainya": 7893,
  "ilaku": 3717,
  "ilakunya": 24718,
  "ilan": 923,
  "ilang": 1305,
  "ilangan": 2649,
  "ilangkan": 2677,
  "ilannya": 43347,
  "ilap": 20238,
  "ilas": 6167,
  "ilasan": 49785,
  "ilasi": 12037,
  "ilat": 9883,
  "ilati": 23230,
  "ilator": 49144,
  "ilau": 18565,
  "ilauan": 46485,
  "ilayah": 1685,
  "ilbab": 7886,
  "ild": 11126,
  "ilder": 30041,
  "ilding": 33546,
  "ile": 5363,
  "ilegal": 25952,
  "ileks": 13168,
  "ilepsi": 27034,
  "iler": 10947,
  "ilet": 8995,
  "ilever": 38019,
  "ilh": 32748,
  "ilhami": 37174,
  "ili": 1517,
  "ilia": 22792,
  "ilian": 19993,
  "iliar": 3290,
  "iliasi": 10280,
  "iliate": 26147,
  "ilid": 37546,
  "iligo": 30324,
  "ilih": 614,
  "ilihan": 2546,
  "ilik": 479,
  "ilikan": 8559,
  "iliki": 510,
  "ilikinya": 6860,
  "ilikon": 22671,
  "ilin": 9376,
  "iling": 3291,
  "ilingan": 24789,
  "ilingi": 8426,
  "ilink": 35775,
  "ilio": 42997,
  "ilion": 48512,
  "ilir": 11724,
  "iliran": 38528,
  "ilis": 2152,
  "ilisasi": 38274,
  "ilit": 17791,
  "ilitas": 3944,
  "ility": 16524,
  "iliun": 5290,
  "iliwangi": 31046,
  "ilizer": 37233,
  "ilkan": 9983,
  "ill": 1960,
  "illa": 5397,
  "illah": 4455,
  "illar": 41520,
  "ille": 12732,
  "iller": 16590,
  "illes": 45629,
  "illian": 49892,
  "illing": 28106,
  "illo": 33567,
  "illoma": 30197,
  "illomavirus": 45697,
  "ills": 35794,
  "illus": 47666,
  "illy": 28813,
  "ilm": 4033,
  "ilmu": 12855,
  "ilmuan": 14831,
  "ilnya": 26377,
  "ilo": 11545,
  "ilogi": 40059,
  "iloma": 20562,
  "ils": 23487,
  "ilt": 48658,
  "ilter": 37999,
  "ilu": 4544,
  "iluk": 31617,
  "ilukada": 32547,
  "ilustrasikan": 47194,
  "ily": 8950,
  "ilya": 35251,
  "im": 360,
  "ima": 817,
  "imaan": 6045,
  "image": 38314,
  "imah": 16656,
  "imak": 2590,
  "imakasih": 5148,
  "imal": 1586,
  "imalaya": 41424,
  "imalis": 7283,
  "imalisasi": 36883,
  "imalisir": 11181,
  "imalkan": 6726,
  "imam": 41584,
  "iman": 2259,
  "imana": 841,
  "imanakah": 13893,
  "imanan": 14568,
  "imanapun": 7865,
  "imang": 39566,
  "imantan": 5901,
  "imanuk": 48489,
  "imanya": 10756,
  "imar": 31818,
  "imas": 20777,
  "imasi": 7623,
  "imat": 3977,
  "imax": 16347,
  "imb": 1131,
  "imba": 15147,
  "imbah": 7197,
  "imbal": 42842,
  "imbang": 4014,
  "imbangan": 7356,
  "imbangi": 12636,
  "imbangkan": 17150,
  "imbar": 21545,
  "imbaran": 38411,
  "imbas": 19883,
  "imbau": 10988,
  "imbauan": 28510,
  "imbel": 28455,
  "imbing": 6693,
  "imbingan": 8576,
  "imbo": 49153,
  "imbol": 5946,
  "imbolkan": 46257,
  "imbon": 26034,
  "imbunan": 34157,
  "imda": 38658,
  "ime": 5279,
  "imen": 8826,
  "imensi": 33652,
  "imer": 6906,
  "imeter": 30653,
  "imi": 10818,
  "imia": 3810,
  "imigrasi": 48092,
  "imil": 47274,
  "imin": 14697,
  "iminasi": 27019,
  "iming": 24900,
  "imir": 37504,
  "imis": 18079,
  "immer": 44366,
  "imming": 49459,
  "imnya": 26576,
  "imo": 13829,
  "imob": 21650,
  "imon": 46313,
  "imoto": 46739,
  "imp": 685,
  "impa": 34035,
  "impah": 8147,
  "impahan": 21006,
  "impahkan": 23236,
  "impan": 2354,
  "impanan": 30086,
  "impang": 25668,
  "impangan": 19893,
  "impi": 2989,
  "impiade": 13567,
  "impikan": 22024,
  "impin": 1982,
  "impinan": 3420,
  "impinannya": 21147,
  "impit": 33459,
  "impitan": 47684,
  "implem": 13584,
  "implementasi": 42939,
  "implementasikan": 15167,
  "impo": 49891,
  "impor": 17660,
  "import": 39845,
  "impulan": 5584,
  "impulannya": 18699,
  "impun": 11412,
  "impunan": 11868,
  "impung": 20384,
  "imtek": 27621,
  "imu": 3932,
  "imulasikan": 49238,
  "imum": 8726,
  "imun": 30739,
  "imus": 45898,
  "imut": 15052,
  "imuti": 19959,
  "in": 270,
  "ina": 1134,
  "inaan": 7628,
  "inah": 10775,
  "inakan": 42818,
  "inakkan": 43855,
  "inal": 2484,
  "inales": 31829,
  "inalisasi": 37688,
  "inambungan": 39429,
  "inan": 1350,
  "inang": 26038,
  "inannya": 21736,
  "inansial": 8297,
  "inanya": 31900,
  "inap": 21874,
  "inapan": 25680,
  "inar": 2226,
  "inari": 36352,
  "inary": 5361,
  "inas": 19882,
  "inasakan": 31416,
  "inasan": 39742,
  "inasi": 1718,
  "inasikan": 8787,
  "inasional": 30078,
  "inat": 30286,
  "inata": 32625,
  "inatif": 38752,
  "inavia": 49141,
  "inawa": 46546,
  "inc": 2067,
  "incang": 10625,
  "incangan": 15306,
  "incangkan": 19794,
  "incar": 14923,
  "incare": 16865,
  "incau": 37071,
  "ince": 35817,
  "inci": 5836,
  "incian": 8917,
  "incin": 9067,
  "incir": 19313,
  "inclong": 39152,
  "incut": 48708,
  "ind": 650,
  "inda": 8161,
  "indah": 3313,
  "indahan": 3636,
  "indahkan": 6293,
  "indak": 4466,
  "indakan": 11040,
  "indaklanjuti": 14540,
  "indang": 19963,
  "indar": 5622,
  "indari": 2363,
  "indarilah": 34700,
  "indarkan": 12541,
  "indas": 19397,
  "indasan": 27733,
  "inder": 7424,
  "index": 38649,
  "indi": 34660,
  "indih": 34060,
  "indik": 45486,
  "inding": 3435,
  "indir": 27687,
  "individu": 29722,
  "indo": 7148,
  "indonesia": 16087,
  "indow": 22667,
  "indows": 4292,
  "indra": 11177,
  "indu": 6376,
  "induan": 20567,
  "indukan": 12549,
  "indung": 7867,
  "indungan": 43885,
  "indungi": 3834,
  "industri": 29582,
  "industrian": 23333,
  "indy": 25629,
  "ine": 2188,
  "inea": 30289,
  "ineas": 45431,
  "ined": 35774,
  "inedine": 39764,
  "iner": 2768,
  "inerary": 21289,
  "inerg": 17223,
  "inergi": 11740,
  "inergikan": 46836,
  "inerja": 30813,
  "ines": 34077,
  "inese": 22901,
  "iness": 9365,
  "inet": 18706,
  "inez": 38316,
  "inf": 4548,
  "infeksi": 7575,
  "infektan": 49567,
  "inflamasi": 30026,
  "info": 9094,
  "informasi": 18758,
  "ing": 304,
  "inga": 4746,
  "ingai": 42885,
  "ingale": 48581,
  "ingan": 776,
  "ingankan": 11135,
  "ingat": 1467,
  "ingatan": 4490,
  "ingati": 9956,
  "ingatkan": 4048,
  "ingatlah": 47509,
  "inger": 13768,
  "inget": 48068,
  "ingg": 671,
  "ingga": 549,
  "inggahan": 36832,
  "inggahi": 42645,
  "inggal": 967,
  "inggalan": 9836,
  "inggalkan": 27288,
  "inggapi": 36144,
  "inggau": 32732,
  "inggi": 888,
  "inggian": 31552,
  "ingginya": 15569,
  "inggir": 25001,
  "inggirkan": 39941,
  "inggit": 40694,
  "inggo": 13834,
  "inggolan": 39257,
  "inggris": 5487,
  "inggu": 1753,
  "inggung": 8700,
  "inggungan": 28043,
  "ingham": 40028,
  "ingi": 14431,
  "ingin": 588,
  "inginan": 2804,
  "inginkan": 2500,
  "inginkannya": 17493,
  "ingk": 581,
  "ingkah": 8640,
  "ingkai": 30061,
  "ingkali": 4362,
  "ingkan": 15683,
  "ingkap": 27921,
  "ingkar": 14651,
  "ingkaran": 29044,
  "ingkari": 18950,
  "ingkat": 746,
  "ingkatan": 2560,
  "ingkatkan": 6797,
  "ingkatnya": 16224,
  "ingking": 41255,
  "ingkir": 18608,
  "ingkirkan": 10452,
  "ingku": 21123,
  "ingkuh": 13990,
  "ingkuhan": 20512,
  "ingkungan": 7398,
  "ingkup": 38666,
  "ingnya": 8462,
  "ingo": 46666,
  "ingrat": 37101,
  "ings": 11442,
  "ingsewu": 32571,
  "ingsih": 26386,
  "ington": 15409,
  "ingungan": 9366,
  "ingungkan": 15220,
  "ingya": 22154,
  "inho": 9152,
  "ini": 684,
  "inian": 11359,
  "inil": 47739,
  "inilah": 12020,
  "ining": 23413,
  "ininya": 34582,
  "inis": 35801,
  "initas": 26543,
  "inity": 26885,
  "inium": 13088,
  "inix": 24861,
  "inj": 1896,
  "inja": 10672,
  "injai": 19115,
  "injak": 10879,
  "injal": 5766,
  "injam": 9715,
  "injaman": 17629,
  "injamkan": 21222,
  "injang": 40991,
  "injani": 30857,
  "injau": 9176,
  "injauan": 14339,
  "injing": 26360,
  "injo": 49073,
  "inju": 31127,
  "ink": 2136,
  "inkamtibmas": 32361,
  "inkan": 3954,
  "inkarn": 35518,
  "inkarnasi": 35915,
  "inkes": 30995,
  "inki": 43545,
  "inkron": 15811,
  "inkronkan": 50073,
  "inn": 16955,
  "inner": 46919,
  "innya": 15929,
  "ino": 1434,
  "inong": 35262,
  "inovasi": 37100,
  "ins": 6445,
  "insa": 23566,
  "insam": 19067,
  "insamyong": 19100,
  "inseng": 21419,
  "insi": 1714,
  "insip": 3914,
  "inson": 32003,
  "inspirasi": 32399,
  "inst": 17285,
  "instal": 43324,
  "install": 21548,
  "instansi": 46019,
  "instein": 28421,
  "int": 623,
  "inta": 938,
  "intaan": 3900,
  "intaannya": 23671,
  "intage": 23270,
  "intah": 4363,
  "intahkan": 13075,
  "intai": 3498,
  "intainya": 14995,
  "intal": 46424,
  "intan": 31609,
  "intang": 2914,
  "intangi": 15153,
  "intanya": 8866,
  "intar": 4557,
  "intaro": 26421,
  "intas": 3862,
  "intasan": 15532,
  "intasi": 12119,
  "intech": 29117,
  "integr": 18015,
  "integrasi": 10808,
  "integrasikan": 18744,
  "inten": 45286,
  "intendo": 26593,
  "inter": 4393,
  "interaksi": 8228,
  "interest": 39465,
  "internet": 37306,
  "intesis": 25069,
  "inti": 33902,
  "intih": 42745,
  "intik": 9491,
  "intil": 48341,
  "intiman": 41899,
  "inting": 23919,
  "intir": 16707,
  "intis": 11383,
  "into": 31978,
  "intu": 31474,
  "intus": 29385,
  "inu": 29690,
  "inue": 9464,
  "inum": 25406,
  "inus": 31309,
  "investasi": 39833,
  "iny": 9645,
  "inya": 478,
  "inyl": 24068,
  "inyur": 19490,
  "io": 7000,
  "ion": 8396,
  "ior": 13306,
  "iosis": 43526,
  "ious": 28760,
  "ip": 534,
  "ipa": 19503,
  "ipal": 48654,
  "ipan": 9084,
  "ipanas": 47453,
  "ipang": 9699,
  "ipas": 31233,
  "ipat": 8800,
  "ipatan": 30152,
  "ipe": 9947,
  "ipi": 23525,
  "ipik": 44680,
  "ipina": 9985,
  "ipis": 9272,
  "ipkan": 12148,
  "iplak": 40680,
  "ipment": 34680,
  "ipnotis": 29563,
  "ipop": 22771,
  "ipper": 26748,
  "iprah": 24820,
  "ips": 3538,
  "ipstick": 16316,
  "ipt": 28656,
  "ipta": 3705,
  "iptakan": 2165,
  "iptalah": 42858,
  "iptanya": 14478,
  "ipto": 23490,
  "ipu": 12596,
  "ipuan": 38839,
  "ipulasi": 13618,
  "ipun": 1630,
  "iput": 32637,
  "iputera": 47825,
  "iputi": 26157,
  "ipzig": 46832,
  "iq": 6748,
  "iqah": 12612,
  "ique": 32936,
  "ir": 335,
  "ira": 1694,
  "iraan": 6337,
  "irah": 5272,
  "irahat": 4728,
  "irahkan": 28341,
  "irakan": 4409,
  "iram": 14657,
  "irama": 33409,
  "iraman": 30782,
  "iran": 1301,
  "irangan": 45101,
  "irannya": 8302,
  "iranya": 5925,
  "irasi": 3359,
  "irat": 12468,
  "irausaha": 11646,
  "irausahaan": 15728,
  "ird": 9781,
  "ire": 7766,
  "irect": 41482,
  "ired": 26823,
  "irejo": 48313,
  "iri": 529,
  "irian": 4664,
  "irik": 5729,
  "irikan": 3667,
  "irilah": 27579,
  "irim": 1345,
  "iriman": 3733,
  "irin": 13866,
  "iring": 2554,
  "iringan": 15843,
  "iringi": 12239,
  "iringkan": 41485,
  "irinya": 4830,
  "irip": 3344,
  "iripan": 21270,
  "iris": 10154,
  "irit": 30811,
  "iritasi": 35290,
  "irkan": 1859,
  "irkannya": 37203,
  "irl": 11727,
  "irm": 4017,
  "irman": 4685,
  "irmasi": 5075,
  "irmasikan": 28319,
  "irmidzi": 25084,
  "irmingham": 43373,
  "irmware": 21511,
  "irnya": 8206,
  "iro": 5454,
  "iroid": 16875,
  "irt": 49237,
  "iru": 3214,
  "iruan": 14308,
  "irul": 44459,
  "irum": 27956,
  "irus": 7279,
  "iry": 29712,
  "is": 293,
  "isa": 1594,
  "isah": 1979,
  "isahan": 10448,
  "isahkan": 4663,
  "isai": 23701,
  "isal": 6872,
  "isalnya": 1500,
  "isan": 2190,
  "isap": 10918,
  "isar": 6253,
  "isaran": 16856,
  "isari": 36872,
  "isariat": 49816,
  "isaris": 15104,
  "isarua": 48089,
  "isasi": 1722,
  "isasikan": 26164,
  "isata": 1254,
  "ische": 46403,
  "isd": 37809,
  "isdiksi": 42415,
  "ise": 7006,
  "isel": 47874,
  "iseng": 35122,
  "isensi": 8899,
  "iser": 41143,
  "iset": 25271,
  "ish": 4694,
  "isha": 19389,
  "ishab": 45505,
  "ishing": 20841,
  "isi": 503,
  "isia": 28875,
  "isial": 14969,
  "isian": 8015,
  "isiasi": 27999,
  "isiatif": 21026,
  "isida": 34360,
  "isiensi": 28548,
  "isih": 9944,
  "isihan": 19578,
  "isihkan": 32187,
  "isik": 1673,
  "isika": 8545,
  "isikan": 5978,
  "isikkan": 46155,
  "isiko": 3164,
  "isiku": 38447,
  "isili": 12620,
  "isin": 20918,
  "ising": 33035,
  "isinya": 5253,
  "ision": 23995,
  "isioner": 45976,
  "isip": 2967,
  "isipasi": 3719,
  "isipasinya": 41678,
  "isipkan": 20857,
  "isiplin": 13908,
  "isiplinan": 21795,
  "isir": 7340,
  "isiran": 47970,
  "isis": 7863,
  "isisi": 15362,
  "isit": 16404,
  "isitas": 39223,
  "isium": 49240,
  "isius": 35457,
  "isk": 2309,
  "iska": 20780,
  "iskal": 22116,
  "iskan": 14183,
  "iskin": 5798,
  "iskinan": 8741,
  "iskus": 31628,
  "iskusi": 9933,
  "iskusikan": 13077,
  "isl": 8497,
  "islam": 34429,
  "islasi": 40933,
  "islatif": 11401,
  "ism": 12582,
  "isma": 16389,
  "isme": 2553,
  "ismillah": 49806,
  "isnis": 3108,
  "isnya": 12844,
  "iso": 42323,
  "isode": 9394,
  "isol": 35744,
  "ison": 20129,
  "isonal": 44358,
  "iss": 5275,
  "issa": 45534,
  "issan": 16471,
  "isser": 25840,
  "isseria": 26254,
  "ission": 38653,
  "isson": 47899,
  "issue": 31835,
  "ist": 628,
  "ista": 21655,
  "istal": 14003,
  "istan": 10536,
  "istar": 26223,
  "iste": 48473,
  "istem": 1101,
  "isten": 2916,
  "istening": 37797,
  "istensi": 7838,
  "istensinya": 26971,
  "ister": 8656,
  "isteri": 38598,
  "isti": 3312,
  "istic": 29284,
  "istik": 3056,
  "istika": 40129,
  "istilah": 24003,
  "istilahkan": 45208,
  "istimewa": 13608,
  "istimewaan": 15359,
  "isting": 33234,
  "istirah": 23152,
  "istirahatkan": 33407,
  "istis": 8461,
  "istiwa": 3628,
  "isto": 43621,
  "istol": 39827,
  "istor": 25226,
  "istr": 1765,
  "istrasi": 3740,
  "istri": 16694,
  "istrib": 10853,
  "istribusi": 27801,
  "istribusian": 28530,
  "istribusikan": 12708,
  "istributor": 20259,
  "istrik": 2820,
  "istrikan": 25807,
  "istro": 44338,
  "istry": 21888,
  "ists": 47798,
  "isturi": 40735,
  "isturizer": 46299,
  "isty": 44355,
  "isu": 11208,
  "isual": 45029,
  "iswa": 955,
  "isy": 21142,
  "isyah": 32417,
  "it": 301,
  "ita": 400,
  "itaan": 35654,
  "itahu": 12522,
  "itahuan": 34086,
  "itahukan": 18609,
  "itakan": 8436,
  "ital": 2220,
  "italisasi": 19519,
  "itam": 7705,
  "itaman": 32418,
  "itamin": 3833,
  "itan": 2678,
  "itania": 27819,
  "itannya": 49846,
  "itansi": 28630,
  "itanya": 6008,
  "itar": 918,
  "itaran": 18094,
  "itarasa": 25894,
  "itari": 24091,
  "itary": 44613,
  "itas": 540,
  "itasi": 3922,
  "itasinya": 49106,
  "itasking": 22932,
  "itasnya": 21316,
  "itat": 38644,
  "itatif": 14787,
  "itator": 19271,
  "itch": 28775,
  "itcoin": 4221,
  "ite": 4573,
  "itec": 46726,
  "itech": 44012,
  "ited": 11321,
  "itel": 12568,
  "item": 29945,
  "iten": 22282,
  "iter": 2360,
  "itera": 33438,
  "iteria": 6341,
  "ites": 27542,
  "itez": 39573,
  "ith": 4745,
  "itha": 47796,
  "ithan": 49740,
  "iti": 2935,
  "itia": 5054,
  "itiaan": 43978,
  "itical": 45616,
  "ities": 19862,
  "itif": 2173,
  "itiga": 14932,
  "itik": 1414,
  "itikan": 17090,
  "itim": 18552,
  "itin": 42984,
  "iting": 11569,
  "ition": 9218,
  "itional": 30230,
  "itioner": 30081,
  "itipan": 32721,
  "itis": 3394,
  "itish": 25343,
  "itive": 23371,
  "itkan": 28377,
  "itmen": 4673,
  "itment": 35500,
  "itnah": 33256,
  "itno": 36536,
  "itnya": 19445,
  "ito": 7337,
  "iton": 28216,
  "itor": 4494,
  "itoris": 25416,
  "itos": 37963,
  "itr": 7435,
  "itra": 3544,
  "itraan": 10214,
  "itranya": 41354,
  "itri": 29505,
  "its": 3892,
  "itsu": 37163,
  "itt": 23810,
  "itte": 43600,
  "itter": 42634,
  "itu": 348,
  "itual": 5626,
  "itualnya": 44250,
  "ituasi": 25182,
  "itudo": 38975,
  "itul": 21694,
  "itulah": 28626,
  "itulis": 36353,
  "itung": 2961,
  "itungan": 13658,
  "itunggal": 45884,
  "itunya": 47378,
  "itur": 1575,
  "iture": 6302,
  "iturgi": 43133,
  "itus": 2689,
  "ity": 2342,
  "itya": 19802,
  "itz": 24523,
  "iu": 4896,
  "ium": 7135,
  "iuman": 11776,
  "iun": 44966,
  "ius": 24685,
  "iv": 1592,
  "iva": 23221,
  "ival": 13978,
  "ive": 3887,
  "iver": 1751,
  "iverpool": 7305,
  "ivers": 2221,
  "iversal": 12577,
  "iversitas": 2412,
  "ives": 44517,
  "ivia": 43936,
  "ivid": 3405,
  "ividu": 20447,
  "ivitas": 15368,
  "ivo": 29122,
  "ivot": 41505,
  "iwa": 2167,
  "iwaan": 23554,
  "iwai": 46170,
  "iway": 20374,
  "iwayat": 6828,
  "iwayatkan": 22952,
  "ix": 8835,
  "ixion": 28516,
  "ixix": 46036,
  "iy": 21474,
  "iya": 13436,
  "iyah": 24213,
  "iyyah": 45455,
  "iz": 1790,
  "iza": 26517,
  "izard": 34866,
  "izat": 17231,
  "ization": 32297,
  "ize": 20516,
  "izen": 8757,
  "izens": 35509,
  "izer": 24985,
  "izh": 37862,
  "izi": 5079,
  "izin": 25560,
  "izinan": 15386,
  "izinkan": 9800,
  "izioso": 32192,
  "izof": 38183,
  "izofrenia": 39110,
  "izza": 13024,
  "j": 78,
  "ja": 391,
  "jaan": 7112,
  "jab": 4453,
  "jabar": 40757,
  "jabarkan": 23735,
  "jabat": 24142,
  "jabatan": 44172,
  "jack": 12346,
  "jad": 20442,
  "jadi": 412,
  "jadian": 2941,
  "jadiannya": 24045,
  "jadikan": 2545,
  "jadjaran": 41922,
  "jae": 41575,
  "jaga": 2995,
  "jah": 4971,
  "jahan": 14490,
  "jair": 48254,
  "jaj": 48021,
  "jaja": 34495,
  "jajah": 42995,
  "jajar": 13238,
  "jak": 4166,
  "jakan": 11901,
  "jakarta": 13033,
  "jakulasi": 21574,
  "jal": 15498,
  "jalan": 752,
  "jalanan": 1506,
  "jalani": 38970,
  "jalankan": 25096,
  "jalur": 35680,
  "jam": 6497,
  "jaman": 23918,
  "jamur": 38085,
  "jan": 14155,
  "jana": 7476,
  "jang": 11774,
  "jangan": 10871,
  "janji": 28679,
  "janto": 27811,
  "jar": 6071,
  "jarak": 48821,
  "jaran": 18361,
  "jarang": 40942,
  "jari": 16105,
  "jaring": 35982,
  "jaringan": 28445,
  "jarkan": 29804,
  "jas": 31330,
  "jasa": 15322,
  "jat": 26850,
  "jati": 28518,
  "jauh": 9767,
  "jawa": 11842,
  "jawab": 4926,
  "jawaban": 16427,
  "jay": 42548,
  "jaya": 5189,
  "jaz": 19139,
  "jazah": 12485,
  "jazair": 41414,
  "je": 23067,
  "ject": 7829,
  "jector": 37056,
  "jek": 2988,
  "jelas": 11905,
  "jelasnya": 38035,
  "jelek": 44778,
  "jemahkan": 10781,
  "jemen": 34993,
  "jemput": 39906,
  "jen": 5324,
  "jend": 47627,
  "jeng": 49137,
  "jenis": 9890,
  "jer": 45571,
  "jet": 31188,
  "ji": 2249,
  "jian": 4783,
  "jib": 10243,
  "jid": 3036,
  "jie": 37009,
  "jik": 48080,
  "jika": 9633,
  "jikan": 4391,
  "jil": 8813,
  "jin": 8072,
  "jing": 37590,
  "jipto": 41616,
  "jir": 6847,
  "jiwa": 27809,
  "jizat": 22948,
  "jk": 45067,
  "jo": 4037,
  "job": 36192,
  "jojo": 49180,
  "jok": 11744,
  "jong": 43514,
  "jono": 23138,
  "joy": 19680,
  "jpg": 38757,
  "jpnn": 42863,
  "js": 20076,
  "jt": 25575,
  "ju": 1152,
  "jual": 9683,
  "jualan": 2618,
  "juan": 3352,
  "juangan": 4312,
  "juangkan": 9780,
  "jub": 6474,
  "jubkan": 7318,
  "jud": 34941,
  "judi": 25437,
  "judul": 33534,
  "juga": 17559,
  "juh": 13488,
  "juj": 47092,
  "juk": 8691,
  "jukan": 6810,
  "jumlah": 35748,
  "jun": 45207,
  "jung": 12036,
  "junkan": 35670,
  "jur": 5163,
  "jurkan": 16184,
  "jury": 49001,
  "jus": 37577,
  "just": 41250,
  "juta": 21962,
  "k": 79,
  "ka": 4236,
  "kaan": 36179,
  "kab": 17084,
  "kabar": 39852,
  "kabel": 16267,
  "kabupaten": 32436,
  "kac": 21299,
  "kaca": 30281,
  "kacangan": 24268,
  "kad": 39439,
  "kada": 6131,
  "kadang": 4616,
  "kader": 33076,
  "kades": 30248,
  "kagum": 43572,
  "kah": 2229,
  "kahi": 27495,
  "kai": 39979,
  "kaidah": 40279,
  "kaido": 44710,
  "kain": 44696,
  "kait": 9052,
  "kaitan": 15515,
  "kak": 28519,
  "kakak": 31349,
  "kaki": 29225,
  "kal": 15328,
  "kala": 9444,
  "kalau": 11104,
  "kali": 6262,
  "kalian": 41309,
  "kalimat": 26184,
  "kalo": 21344,
  "kam": 17992,
  "kamah": 12459,
  "kamar": 28608,
  "kami": 12686,
  "kampung": 40351,
  "kampus": 37366,
  "kamu": 18697,
  "kan": 289,
  "kanak": 18393,
  "kanakan": 44989,
  "kanan": 32376,
  "kand": 14916,
  "kandal": 22882,
  "kandung": 7285,
  "kandungan": 42363,
  "kang": 47355,
  "kanker": 39083,
  "kanlah": 17547,
  "kannya": 1548,
  "kantong": 38961,
  "kantor": 14024,
  "kantoran": 13910,
  "kanya": 20069,
  "kaos": 41588,
  "kap": 17894,
  "kapal": 25632,
  "kapan": 33634,
  "kar": 4075,
  "kara": 28604,
  "karakter": 25642,
  "karbon": 46003,
  "karena": 7173,
  "kari": 43307,
  "karn": 31495,
  "karna": 35676,
  "karnain": 43843,
  "kartu": 24278,
  "karya": 11540,
  "karyanya": 32020,
  "karyawan": 43208,
  "kas": 7024,
  "kasi": 35380,
  "kasih": 38308,
  "kasus": 17897,
  "kat": 10150,
  "kata": 4079,
  "kataan": 33742,
  "katanya": 14983,
  "kategori": 50080,
  "kati": 17454,
  "kau": 34278,
  "kawan": 12613,
  "kawannya": 32861,
  "kaya": 48328,
  "kayu": 39502,
  "ke": 3803,
  "keadaan": 47452,
  "keb": 8992,
  "kebaikan": 43639,
  "kebenaran": 48699,
  "keber": 38424,
  "kebiasaan": 30702,
  "kebijakan": 28166,
  "kebun": 46064,
  "kebutuhan": 28399,
  "kec": 15685,
  "kecil": 18472,
  "kecilan": 29950,
  "kecuali": 22971,
  "ked": 20795,
  "kedua": 41750,
  "keg": 46852,
  "kegiatan": 14025,
  "keh": 26875,
  "keinginan": 50118,
  "kej": 18802,
  "kejadian": 26637,
  "kejar": 43189,
  "kejutan": 48983,
  "kek": 21404,
  "kekuatan": 29832,
  "kekurangan": 43694,
  "kel": 8598,
  "kelamaan": 27006,
  "kelambu": 35300,
  "kelas": 24965,
  "kelebihan": 40655,
  "kelemahan": 48238,
  "kelompok": 12898,
  "keluar": 36806,
  "keluarga": 27363,
  "kelurahan": 39253,
  "kem": 10553,
  "kemampuan": 36626,
  "kemarin": 44622,
  "kembali": 36810,
  "kembangkan": 47419,
  "kemen": 47026,
  "kemudian": 27382,
  "kemungkinan": 34411,
  "ken": 14199,
  "kenal": 45907,
  "kenangan": 30177,
  "kenapa": 24540,
  "kend": 33219,
  "kep": 11822,
  "kepada": 33197,
  "kepala": 34440,
  "kepentingan": 45517,
  "keputusan": 40083,
  "ker": 1439,
  "kerajaan": 41982,
  "keras": 39753,
  "keren": 36210,
  "kerja": 24257,
  "kers": 30241,
  "kertas": 47857,
  "kes": 5002,
  "kesalahan": 25239,
  "kesehatan": 45160,
  "kesmas": 9419,
  "ket": 11831,
  "ketentuan": 40246,
  "keter": 34118,
  "ketika": 23823,
  "keu": 25302,
  "keuntungan": 45833,
  "kewajiban": 47983,
  "key": 19176,
  "kg": 13446,
  "kh": 11527,
  "khusus": 21166,
  "khususnya": 29755,
  "ki": 3953,
  "kia": 42794,
  "kiat": 35175,
  "kif": 28766,
  "kifli": 29785,
  "kil": 44749,
  "kin": 15988,
  "king": 10015,
  "kini": 27626,
  "kins": 35437,
  "kios": 46925,
  "kir": 37682,
  "kira": 6869,
  "kiri": 39553,
  "kisah": 17044,
  "kisi": 29746,
  "kit": 27265,
  "kita": 5702,
  "kitab": 7163,
  "kitis": 27026,
  "kk": 10644,
  "kl": 11510,
  "klamasi": 20792,
  "klas": 48354,
  "klien": 47116,
  "klik": 15560,
  "klo": 44450,
  "klub": 23968,
  "klusi": 30529,
  "km": 17428,
  "kn": 19647,
  "knya": 36410,
  "ko": 7562,
  "kode": 24678,
  "kok": 37556,
  "kol": 14445,
  "koli": 22852,
  "kolom": 49078,
  "kom": 5194,
  "komentar": 31807,
  "kominfo": 29315,
  "komp": 14343,
  "komponen": 25698,
  "komputer": 32308,
  "komunikasi": 39994,
  "komunitas": 29097,
  "kon": 10931,
  "kondisi": 30033,
  "koneksi": 49172,
  "kons": 13711,
  "konsep": 24749,
  "kont": 48151,
  "konten": 28298,
  "kontrol": 42641,
  "kop": 15482,
  "kopi": 39823,
  "kor": 27778,
  "korban": 36811,
  "kos": 20532,
  "kosaan": 27313,
  "kosan": 37232,
  "kot": 18214,
  "kota": 4937,
  "kotak": 25476,
  "kotoran": 47155,
  "kr": 21341,
  "krim": 30404,
  "krip": 37126,
  "kripsi": 18989,
  "ks": 9382,
  "kt": 31376,
  "ktur": 47130,
  "ku": 643,
  "kuad": 11548,
  "kualifikasi": 37455,
  "kualitas": 16220,
  "kuat": 4347,
  "kuatnya": 39101,
  "kucing": 47093,
  "kuda": 33206,
  "kue": 31190,
  "kuit": 12144,
  "kul": 25362,
  "kulasi": 11118,
  "kulit": 36263,
  "kulosis": 49367,
  "kum": 21682,
  "kumham": 38768,
  "kun": 19288,
  "kunci": 49492,
  "kup": 12967,
  "kupu": 22458,
  "kur": 19872,
  "kura": 26322,
  "kurang": 22192,
  "kurangnya": 18642,
  "kursi": 40602,
  "kus": 12757,
  "kusen": 40724,
  "kw": 12126,
  "kwk": 27979,
  "kwkw": 20933,
  "ky": 7713,
  "l": 80,
  "la": 5232,
  "laah": 48577,
  "lab": 32912,
  "laba": 18540,
  "lace": 44914,
  "lad": 26367,
  "ladesh": 27666,
  "laf": 45555,
  "lag": 28273,
  "laga": 42642,
  "lagi": 8764,
  "lagu": 12038,
  "lagunya": 47105,
  "lah": 493,
  "lahan": 4368,
  "lahatan": 26798,
  "lahi": 19443,
  "lahir": 12031,
  "lahraga": 6788,
  "lai": 11159,
  "laim": 5352,
  "lain": 4822,
  "lainnya": 22845,
  "lak": 6574,
  "laki": 2754,
  "lakinya": 29981,
  "lakuan": 31464,
  "lakukan": 5990,
  "lalu": 18131,
  "lam": 1362,
  "lama": 9470,
  "lamanya": 20875,
  "lamasi": 9349,
  "lamat": 45004,
  "lambatnya": 39091,
  "lame": 18632,
  "lamet": 18268,
  "lami": 10895,
  "lamidia": 45748,
  "lamp": 20674,
  "lampu": 32905,
  "lampung": 47583,
  "lamy": 46972,
  "lan": 1512,
  "land": 4640,
  "landia": 10034,
  "lando": 37787,
  "lang": 7945,
  "langga": 17321,
  "langit": 20180,
  "langkah": 6926,
  "langkahnya": 26832,
  "langsung": 42505,
  "lanja": 28899,
  "lanjut": 11989,
  "lanjuti": 13984,
  "lank": 17159,
  "lant": 41809,
  "lanta": 34685,
  "lantas": 31019,
  "lap": 17355,
  "lapisan": 49502,
  "laporan": 42440,
  "laptop": 37023,
  "lar": 6512,
  "larasi": 14413,
  "larasikan": 22584,
  "lari": 30724,
  "larifikasi": 25875,
  "larut": 37017,
  "las": 1461,
  "lasan": 40457,
  "lash": 4342,
  "lasi": 6328,
  "lasifikasi": 14143,
  "lasifikasikan": 19318,
  "lass": 8062,
  "lassic": 20981,
  "last": 24469,
  "lastik": 40271,
  "lat": 3532,
  "latan": 19413,
  "late": 7869,
  "laten": 17220,
  "latform": 37277,
  "latihan": 40004,
  "lator": 47027,
  "latul": 26337,
  "lav": 25413,
  "lawan": 8205,
  "lawannya": 38425,
  "lay": 7896,
  "layanan": 36486,
  "layang": 28092,
  "layer": 49914,
  "lazada": 10068,
  "le": 865,
  "lea": 50057,
  "lean": 43334,
  "leans": 46194,
  "lear": 25077,
  "learning": 37256,
  "lease": 28986,
  "leb": 28225,
  "lebar": 35345,
  "lebih": 5011,
  "lebihan": 47577,
  "led": 14668,
  "ledge": 20375,
  "lee": 25556,
  "leep": 20744,
  "leg": 38775,
  "leh": 43527,
  "lein": 48562,
  "lek": 11850,
  "leks": 16146,
  "leksi": 12830,
  "leksikan": 29055,
  "lem": 4177,
  "lemah": 43199,
  "lembaga": 16938,
  "lemen": 5968,
  "lement": 33475,
  "lementer": 42805,
  "len": 31879,
  "leng": 24079,
  "lens": 32575,
  "lenya": 40340,
  "ler": 6303,
  "lerosis": 35644,
  "les": 6450,
  "less": 10055,
  "lestick": 22935,
  "let": 2478,
  "lete": 28457,
  "letic": 30437,
  "leting": 20786,
  "leton": 48208,
  "letter": 39004,
  "leus": 41528,
  "level": 25781,
  "lewat": 48421,
  "lex": 11531,
  "ley": 7614,
  "lh": 50248,
  "li": 1002,
  "lia": 39947,
  "liam": 13599,
  "lian": 12121,
  "liar": 38420,
  "lib": 38860,
  "libatan": 40514,
  "lic": 8155,
  "lie": 17603,
  "lien": 5120,
  "lient": 13899,
  "lier": 10446,
  "lies": 42523,
  "life": 31302,
  "lift": 11203,
  "lig": 6854,
  "liga": 20557,
  "ligasi": 14064,
  "ligence": 30076,
  "ligh": 27753,
  "light": 12516,
  "lih": 29833,
  "lihat": 4003,
  "lihatan": 10936,
  "lihatkan": 5821,
  "lik": 1322,
  "lika": 17188,
  "likan": 17677,
  "likasi": 945,
  "likasikan": 4127,
  "likasikannya": 24755,
  "likasinya": 32555,
  "likat": 29067,
  "like": 42347,
  "liki": 28162,
  "liku": 35602,
  "lil": 44454,
  "lim": 1832,
  "lima": 8454,
  "limat": 43722,
  "limited": 18817,
  "lin": 566,
  "lina": 24924,
  "lind": 4239,
  "lindungan": 4773,
  "line": 612,
  "lines": 14164,
  "ling": 4779,
  "linggau": 33260,
  "linik": 17778,
  "link": 8303,
  "lins": 42418,
  "lint": 37672,
  "lintas": 38325,
  "lintasan": 45860,
  "linya": 6442,
  "lion": 25552,
  "lip": 19555,
  "lipat": 38421,
  "lis": 1976,
  "lise": 28780,
  "liser": 29426,
  "liserida": 35034,
  "lish": 7732,
  "lisher": 48100,
  "lisit": 26206,
  "list": 16466,
  "lit": 11769,
  "liter": 31870,
  "live": 36863,
  "liwon": 45681,
  "lix": 27213,
  "ll": 3199,
  "lm": 12777,
  "lo": 1370,
  "load": 2089,
  "loader": 48616,
  "lock": 16130,
  "loe": 46154,
  "log": 1110,
  "logan": 17395,
  "logger": 42559,
  "logo": 48784,
  "loh": 40894,
  "loid": 22885,
  "loitasi": 17955,
  "loji": 39989,
  "lok": 6691,
  "lokasi": 22532,
  "lokir": 11749,
  "lokiran": 26949,
  "lomba": 16729,
  "lon": 6599,
  "long": 15714,
  "look": 27359,
  "loop": 25731,
  "lop": 15700,
  "lor": 14295,
  "los": 14245,
  "losan": 24330,
  "loskan": 41974,
  "lot": 19632,
  "loud": 10534,
  "lover": 38243,
  "lovers": 49150,
  "low": 13670,
  "loween": 39426,
  "loy": 21336,
  "lp": 36264,
  "lr": 42545,
  "ls": 25068,
  "lu": 737,
  "luan": 4857,
  "luar": 32857,
  "luas": 8061,
  "luaskan": 22777,
  "luasnya": 37640,
  "lub": 26876,
  "lubang": 32789,
  "luc": 26607,
  "lucu": 35398,
  "lue": 27519,
  "lug": 26636,
  "lugin": 11583,
  "luit": 40107,
  "luk": 9521,
  "luka": 23609,
  "lukan": 1730,
  "lukkan": 15125,
  "luktuasi": 47478,
  "lul": 31725,
  "lum": 9199,
  "lumba": 33282,
  "lumi": 20443,
  "lung": 20453,
  "lunya": 29390,
  "lupa": 47061,
  "lus": 4035,
  "lush": 19127,
  "lusif": 8749,
  "luster": 20941,
  "lux": 49326,
  "ly": 3750,
  "lying": 18785,
  "lyn": 42382,
  "m": 81,
  "mAh": 27955,
  "ma": 1674,
  "maaf": 20534,
  "maan": 38011,
  "mac": 28576,
  "macam": 6374,
  "mad": 2579,
  "mada": 11064,
  "made": 31843,
  "madi": 6970,
  "madiyah": 7685,
  "madrasah": 46741,
  "mag": 37449,
  "maga": 15914,
  "mah": 10430,
  "mahal": 37471,
  "mahasiswa": 25747,
  "mahera": 33252,
  "maid": 46025,
  "mail": 6135,
  "main": 593,
  "mainan": 835,
  "mainkan": 3384,
  "mais": 34368,
  "maisuri": 39277,
  "maj": 33770,
  "mak": 14299,
  "maka": 13971,
  "makan": 12572,
  "makanan": 17804,
  "makasih": 45501,
  "maker": 37070,
  "makhluk": 30928,
  "maki": 48348,
  "makna": 48056,
  "maksud": 32524,
  "maksudnya": 44848,
  "mal": 14421,
  "malah": 39421,
  "malaikat": 38180,
  "malam": 20413,
  "malasan": 34177,
  "mall": 21212,
  "mallow": 31598,
  "malu": 24548,
  "malukan": 26620,
  "mam": 45039,
  "mampuan": 19964,
  "man": 960,
  "mana": 5468,
  "manan": 20105,
  "mand": 37410,
  "mandir": 48805,
  "manen": 8092,
  "manent": 48488,
  "manfaat": 1844,
  "mang": 43543,
  "mani": 10797,
  "mania": 32762,
  "manik": 44901,
  "manis": 31398,
  "mann": 21960,
  "mansyah": 46253,
  "mant": 22786,
  "mantan": 35674,
  "manto": 49395,
  "mantyo": 35415,
  "manuel": 40623,
  "manusia": 17650,
  "manya": 31411,
  "map": 28974,
  "mar": 5196,
  "mara": 14596,
  "marah": 24461,
  "marh": 46326,
  "marhum": 16592,
  "marhumah": 47341,
  "mari": 42165,
  "mark": 10166,
  "market": 9992,
  "marketplace": 44554,
  "mart": 1711,
  "martphone": 2006,
  "mas": 771,
  "masa": 10856,
  "masalah": 5682,
  "masalahan": 3494,
  "masalahkan": 21032,
  "mash": 37380,
  "masih": 21187,
  "masin": 10643,
  "masing": 1701,
  "masjid": 35075,
  "master": 18550,
  "masuk": 1288,
  "masyarakat": 18530,
  "mat": 3726,
  "mata": 7938,
  "matai": 49197,
  "matan": 39597,
  "matang": 47909,
  "match": 49484,
  "mate": 46045,
  "materi": 25752,
  "material": 48483,
  "mati": 12688,
  "matian": 28006,
  "matik": 30886,
  "matika": 49125,
  "matis": 24641,
  "matitis": 24062,
  "mau": 12969,
  "maw": 40932,
  "mawan": 24515,
  "mawati": 23457,
  "max": 22721,
  "may": 35855,
  "maya": 35267,
  "mayadi": 47539,
  "mb": 3587,
  "mbak": 41821,
  "mbian": 44972,
  "mbol": 33542,
  "mc": 47371,
  "me": 1736,
  "meal": 27713,
  "mear": 40890,
  "med": 13261,
  "medi": 32713,
  "media": 16844,
  "mega": 24327,
  "meja": 42455,
  "mel": 9422,
  "melakukan": 37644,
  "melalui": 31845,
  "melihat": 35941,
  "mem": 6934,
  "memang": 27521,
  "memas": 45338,
  "memb": 13549,
  "membaca": 47206,
  "member": 24395,
  "memberikan": 48603,
  "membuat": 26519,
  "memiliki": 24862,
  "memp": 42063,
  "memper": 33381,
  "men": 2045,
  "mena": 25581,
  "menang": 48557,
  "menarik": 42767,
  "menawar": 49751,
  "menc": 17682,
  "mencari": 47731,
  "mend": 21496,
  "mener": 9968,
  "menerus": 10513,
  "meng": 5996,
  "mengajar": 44879,
  "mengapa": 37301,
  "mengg": 30479,
  "menggunakan": 31475,
  "mengh": 25275,
  "menit": 25684,
  "menj": 38924,
  "menjadi": 23587,
  "ment": 3639,
  "mentah": 34554,
  "mentasi": 17338,
  "mented": 33937,
  "ments": 40257,
  "menu": 19754,
  "menulis": 38443,
  "menung": 40069,
  "menurut": 19784,
  "meny": 12502,
  "menya": 21829,
  "mer": 3391,
  "merah": 27315,
  "merahan": 47915,
  "merasa": 49772,
  "merce": 10996,
  "mercial": 49050,
  "merek": 35952,
  "mereka": 16961,
  "merk": 33865,
  "mers": 38081,
  "merta": 38018,
  "merupakan": 38132,
  "mes": 27128,
  "mesin": 18523,
  "mesk": 18544,
  "meski": 33073,
  "meskipun": 24479,
  "met": 11252,
  "meter": 34288,
  "metik": 7681,
  "metode": 29799,
  "mg": 25047,
  "mi": 1216,
  "mia": 30637,
  "miah": 6122,
  "mic": 39791,
  "mid": 32629,
  "mies": 47030,
  "migrasi": 15226,
  "mik": 44886,
  "mikan": 23621,
  "mil": 21145,
  "milah": 48241,
  "milih": 45302,
  "mill": 32196,
  "millah": 35866,
  "mimpi": 25200,
  "min": 1424,
  "mina": 48264,
  "minal": 7957,
  "minat": 48584,
  "mine": 40260,
  "ming": 12486,
  "minggu": 22599,
  "mini": 39916,
  "minimal": 47546,
  "minkan": 11266,
  "mino": 48498,
  "mint": 22082,
  "minta": 38204,
  "minton": 28254,
  "minum": 42423,
  "minuman": 35038,
  "minyak": 35819,
  "mir": 24351,
  "mirip": 32946,
  "mis": 15091,
  "misal": 31404,
  "misalnya": 12740,
  "misi": 9862,
  "misikan": 34970,
  "mission": 46140,
  "mit": 12694,
  "mitos": 47161,
  "mix": 35453,
  "miyah": 33888,
  "mizi": 47834,
  "ml": 10299,
  "mm": 4949,
  "mmm": 22165,
  "mn": 28811,
[...]
